#include "ll_aton_NN_interface.h"
#include "ll_aton.h"
#include "ll_aton_ec_trace.h"

#if 0
// Workaround: the tracer does not know the target at this moment
// and cannot call the functions since are used in static code
#define __LL_ATON_LIB_PHYSICAL_TO_VIRTUAL_ADDR(address) LL_Address_Physical2Virtual(address)
#define __LL_ATON_LIB_VIRTUAL_TO_PHYSICAL_ADDR(address) LL_Address_Virtual2Physical(address)
#else
#define __LL_ATON_LIB_PHYSICAL_TO_VIRTUAL_ADDR(address) (address)
#define __LL_ATON_LIB_VIRTUAL_TO_PHYSICAL_ADDR(address) (address)
#endif


mpool_reloc_info_t mpool_reloc_info[] = {
  {"AXISRAM6", "_mem_pool_AXISRAM6_yamnet", 0x34350000, 1, 0},
  {"AXISRAM5", "_mem_pool_AXISRAM5_yamnet", 0x342e0000, 1, 0},
  {"AXISRAM4", "_mem_pool_AXISRAM4_yamnet", 0x34270000, 1, 0},
  {"AXISRAM3", "_mem_pool_AXISRAM3_yamnet", 0x34200000, 1, 0},
  {"AXISRAM2", "_mem_pool_AXISRAM2_yamnet", 0x34100000, 1, 0},
  {"AXISRAM1", "_mem_pool_AXISRAM1_yamnet", 0x34080000, 1, 0},
  {"AXIFLEXMEM", "_mem_pool_AXIFLEXMEM_yamnet", 0x34000000, 1, 0},
  {"xSPI1", "_mem_pool_xSPI1_yamnet", 0x90000000, 1, 0},
  {"xSPI2", "_mem_pool_xSPI2_yamnet", 0x70380000, 1, 0},
  {"AXISRAM2_AXISRAM3_AXISRAM4_AXISRAM5_AXISRAM6", "_mem_pool_AXISRAM2_AXISRAM3_AXISRAM4_AXISRAM5_AXISRAM6_yamnet", 0x34100000, 1, 0},
  {NULL, NULL, 0, 0, 0}
};


static const uint64_t __blob_Quantize_5_214_requantize_zero[] = {
  0x0000000000000000ULL,
};

static const uint64_t __blob_Conv2D_8_mul_scale_11[] = {
  0x251647CA21272CF7ULL,0x3898617D0B2C19BFULL,0x28850AD42460251DULL,0x1E280BB836DE43F5ULL,0x07FC0E8F3C330AEBULL,0x179D30263E412DD4ULL,0x64741B6F24BD3633ULL,0x1C134FBD09551A9CULL,
};

static const uint64_t __blob_Conv2D_8_off_bias_14[] = {
  0xF8579F1DF7F7C12AULL,0xF830A815F815FC53ULL,0xF7AF857FF83FA8EDULL,0xF8352C30F8469668ULL,0xF860AE43F822DE71ULL,0xF83BABE2F7ACA1F8ULL,0xF86EE189F8502ACBULL,0xF7E649E1F7AB5167ULL,
  0xF7D5C6F3F8671163ULL,0xF7B2DF1FF7C0B3B0ULL,0xF86244BBF82C02BBULL,0xF7C82899F82B9992ULL,0xF846D751F82999D9ULL,0xF83B70BEF8290617ULL,0xF8659E5BF85E11EEULL,0xF7E4D3D6F8128A97ULL,
};

static const uint64_t __blob_Conv2D_13_zero_off_17[] = {
  0x0000000000000000ULL,
};

static const uint64_t __blob_Conv2D_13_mul_scale_20[] = {
  0x3A802A42348C2C03ULL,0x343430A023692942ULL,0x43CC2DD4365615F9ULL,0x2A87259034AC2FBFULL,0x394F2B701CD43556ULL,0x291B176A1BF81390ULL,0x2F6A270346C7168AULL,0x38D62E8238912709ULL,
};

static const uint64_t __blob_Conv2D_13_off_bias_23[] = {
  0xF834EAEAF8AA9DA8ULL,0xF7B1F6B1F7D93563ULL,0xF7EA0503F7D30B53ULL,0xF82C4CC8F8042CA0ULL,0xF840F28DF8F1E74DULL,0xF7F172F3F7F4591DULL,0xF7B8DE66F8049264ULL,0xF79D23F6F8482FF5ULL,
  0xF89A1D14F7F84046ULL,0xF7FAB39AF7E60A4BULL,0xF7E242C9F80BB138ULL,0xF781819AF8EC2CCDULL,0xF7B2A551F826B3DEULL,0xF7D31147F7F71CA5ULL,0xF7FCA352F84A1D5CULL,0xF855342BF7DE3711ULL,
};

static const uint64_t __blob_Conv2D_17_zero_off_26[] = {
  0x0000000000000000ULL,
};

static const uint64_t __blob_Conv2D_17_mul_scale_29[] = {
  0x38B8283D50B63689ULL,0x326F3FB327423793ULL,0x3DA22BF132283157ULL,0x2F3F3ACF2E473ACDULL,0x2D80502B25FF4EA5ULL,0x3438267330034016ULL,0x419B2FC334E5354BULL,0x347D35AA3CAA2E4AULL,
  0x37C72C9F3A305433ULL,0x48A925AC25823EFFULL,0x51F53AAC2E2E3356ULL,0x3CD25AB1352441AEULL,0x29EA266441073CEFULL,0x3F20308049A42982ULL,0x39FA2B7229E03C7EULL,0x2A6931704E822AF2ULL,
};

static const uint64_t __blob_Conv2D_17_off_bias_32[] = {
  0xF8A3CBABF8259133ULL,0xF87901D3F8051498ULL,0xF7B455F9F7404516ULL,0xF8C0A1ACF8700216ULL,0xF734FBB0F7CD275FULL,0xF8908A28F855FFACULL,0xF72E294DF8381DDFULL,0xF8C6F799F7C0034CULL,
  0xF7D58704F8C076A7ULL,0xF77E6747F7D41681ULL,0xF833421CF89C1DB6ULL,0xF7A6E4E9F88BFEA4ULL,0xF81D11F5F81AEA42ULL,0xF7A0DD52F81A844BULL,0xF8639293F8351E07ULL,0xF837A5BDF7C8CCCBULL,
  0xF783C12EF84D8BB9ULL,0xF8185685F8E25B5DULL,0xF8043F7FF8ABD392ULL,0xF7EC2B0DF80FF299ULL,0xF8749CF3F897C07EULL,0xF9219750F81D85AFULL,0xF88AD525F773C07EULL,0xF7DB4C83F797EE53ULL,
  0xF7F4878BF6FC016BULL,0xF86794B3F7CC64D0ULL,0xF8992399F7A5ABE1ULL,0xF8B390B6F7A9465DULL,0xF7769DC4F9052622ULL,0xF8115502F9295789ULL,0xF7C17671F83822C9ULL,0xF8F42F14F6FEF97DULL,
};

static const uint64_t __blob_Conv2D_22_zero_off_35[] = {
  0x0000000000000000ULL,
};

static const uint64_t __blob_Conv2D_22_mul_scale_38[] = {
  0x3A7A24592D3C23D7ULL,0x3C2D354F2D093F08ULL,0x33DA41211611298BULL,0x37021AC419023626ULL,0x3CD3348125523311ULL,0x26D22FE72E732DD1ULL,0x25EE3238308F26D3ULL,0x2E781F0C3A8C2365ULL,
  0x2499314F2DE83291ULL,0x22DC22AB2666328AULL,0x29F639887D155116ULL,0x33B433FE3C1D26EAULL,0x2CE322F41C0F1A88ULL,0x397A282B308727BDULL,0x29BB31C91B59337BULL,0x51633AEF2DF320D4ULL,
};

static const uint64_t __blob_Conv2D_22_off_bias_41[] = {
  0xF78D5A87F7C24D43ULL,0xF77D2727F92C0BD8ULL,0xF80F411EF77A1EDEULL,0xF7952BB5F78F9F4AULL,0xF76629E0F81E8B4DULL,0xF68945D3F86B0EA0ULL,0xF8E3DBEAF6C20B4BULL,0xF75017BEF8CED0AAULL,
  0xF7442A6EF71E6AC7ULL,0xF86F5F20F73A4954ULL,0xF6CA3A4FF7D6D40BULL,0xF90A52A0F9585D5BULL,0xF6F28D4BF8258483ULL,0xF75AC9C7F7586657ULL,0xF700A48DF865F8C3ULL,0xF866AEDEF90CFBBDULL,
  0xF76BA4B9F9A0B203ULL,0xF7B3CC97F70170EAULL,0xF6FCF3B2F91E1607ULL,0xF91F7804F9118CC2ULL,0xF7EC0FDCF7D31623ULL,0xF70C1EA0F7C11177ULL,0xF70E0F8CF723E17DULL,0xF7071C9DF6D181EDULL,
  0xF8EC0838F8D95148ULL,0xF86EFE1BF92398D8ULL,0xF6AAC661F80F1F7CULL,0xF9ECE358F7691009ULL,0xF8A9695EF79503A7ULL,0xF94D3E39F809203CULL,0xF76546FFF8F1C401ULL,0xF8B76848F7F7A9B6ULL,
};

static const uint64_t __blob_Conv2D_26_zero_off_44[] = {
  0x0000000000000000ULL,
};

static const uint64_t __blob_Conv2D_26_mul_scale_47[] = {
  0x12FA2E5A26E117BEULL,0x15C91BC71B632875ULL,0x1609223A270E2305ULL,0x169A236A2AA51BA5ULL,0x261E4830143B257AULL,0x2ED5152717212087ULL,0x20B227C3232F2206ULL,0x15B6156617131744ULL,
  0x23BE193F205A1CE7ULL,0x1C0D1EA9275C2690ULL,0x18CE1C361F3C166AULL,0x24CD31BD2A212658ULL,0x20E314E125E31B0DULL,0x1BCE1B58225F18E0ULL,0x15BE1BB9268B1D7FULL,0x20E41E76158A1EE9ULL,
  0x12E219F91FF613ACULL,0x1F09273619242CA3ULL,0x147619F51EC82DD0ULL,0x296814021A8620C6ULL,0x17ED1E6B22A22860ULL,0x1CD213A733E71B49ULL,0x3086286913C9224AULL,0x1E8217851D8C152FULL,
  0x1D44309027A31D0CULL,0x21A71A831B0928E0ULL,0x12AA1B9B1E632AC2ULL,0x1C3B279F1AF113A6ULL,0x244118652D4420E5ULL,0x14582A1425DD344AULL,0x11591B5417D61F23ULL,0x1CAC190425861703ULL,
};

static const uint64_t __blob_Conv2D_26_off_bias_50[] = {
  0xF8C8BF22F78BE95AULL,0xF829C967F8A1AC4AULL,0xF8E288DEF8576729ULL,0xF80C9C96F850F139ULL,0xF694B910F8AD3A2DULL,0xF7BB2DADF91B7878ULL,0xF88F7FA0F8D175D0ULL,0xF8C9E3A1F8DCCCEBULL,
  0xF837C4ACF7E3A84DULL,0xF91D5702F89808CFULL,0xF8BE3EB7F985E5A5ULL,0xF86DF0D1F6FBD33CULL,0xF891F185F8274F09ULL,0xF773616DF7C02344ULL,0xF8B171D4F803184CULL,0xF8A75738F821946EULL,
  0xF8A600AAF8275F7DULL,0xF8BC0E11F8D6FD51ULL,0xF7888D9BF7FE6293ULL,0xF7AD2606F8B97F78ULL,0xF86F7E5DF7E994E2ULL,0xF92B03ACF8B2EFE5ULL,0xF7FA15ABF82E78EFULL,0xF7B4665AF8381D36ULL,
  0xF8E31231F7ACF903ULL,0xF7D524FFF84D26BCULL,0xF834118CF875C586ULL,0xF87599F1F76BE36DULL,0xF7AC4290F79B1520ULL,0xF8DA2DBBF7EB3D43ULL,0xF7A6132DF82F2197ULL,0xF8360A67F93D3F07ULL,
  0xF946BE65F7C47F2DULL,0xF8A73C8BF8E06C86ULL,0xF7FCD763F90CBA64ULL,0xF8E0D645F90517DAULL,0xF90B1092F82728E0ULL,0xF758420FF808709BULL,0xF8DA9E2AF9281CB6ULL,0xF87601C4F8C7BF0DULL,
  0xF82D78BCF7FBD2A9ULL,0xF80D520EF75E290DULL,0xF9094D97F896D11EULL,0xF7433A38F86A8188ULL,0xF7A35B84F85CA889ULL,0xF861E437F7327366ULL,0xF7E377BAF80BB090ULL,0xF85BE89DF8AAF6DEULL,
  0xF8BBBFC9F8793758ULL,0xF6D370F3F8C2BE23ULL,0xF7733752F7B2922EULL,0xF83E01E0F876EDADULL,0xF851BD04F8E6732AULL,0xF888D4A4F87F289BULL,0xF80B1564F91770D2ULL,0xF81AB3C3F7791E93ULL,
  0xF890D6D2F851321AULL,0xF8E556CEF89B879CULL,0xF82299FCF8613F35ULL,0xF84DFBB7F7895029ULL,0xF83CB50EF8F5256CULL,0xF7AACBECF7D677B0ULL,0xF8506A6FF89E7161ULL,0xF894F572F89ECEEEULL,
};

static const uint64_t __blob_Conv2D_31_zero_off_53[] = {
  0x0000000000000000ULL,
};

static const uint64_t __blob_Conv2D_31_mul_scale_56[] = {
  0x456347992C07320EULL,0x51BB2ABE31FB21F1ULL,0x41341E281E723B8AULL,0x3D2E3FE4243436C2ULL,0x2E791E181F915178ULL,0x36123A5549DB55A1ULL,0x439D33DB2A5E2E99ULL,0x60AE2D6843584B1DULL,
  0x2620403C60832845ULL,0x40BA298C19DD1076ULL,0x34872C1F336D402EULL,0x1CF72D163E7A362DULL,0x29D338DE3EA23E6FULL,0x22CC2640255349E8ULL,0x3BAB446B398627E3ULL,0x42C33F682035384AULL,
  0x52B637C8342449E7ULL,0x3353403729313614ULL,0x1626402825553CFBULL,0x3583374D2B613838ULL,0x301B3A6528ED2DFDULL,0x347745A741863548ULL,0x2524214444AC3565ULL,0x39BB460431D61292ULL,
  0x2C413B9D1F904149ULL,0x1E13559D47192E67ULL,0x4DED257E34D61FCEULL,0x3BC1375B40CA2A8AULL,0x4D8B39A2414A2BD5ULL,0x5558171024362B3EULL,0x32591EFE58EA4232ULL,0x419427523F974F7CULL,
};

static const uint64_t __blob_Conv2D_31_off_bias_59[] = {
  0xF7C7D06FF7A38023ULL,0xF7096DB3F7E2B5E3ULL,0xF9099A5EF7DAE757ULL,0xF7DFE562F85C61A1ULL,0xF751D334F8A46F1EULL,0xF7EF4788F7DB8B3BULL,0xF79EA956F768346FULL,0xF7EC33AAF8ED4EE9ULL,
  0xF86AC7A4F7F43A2DULL,0xF793E38AF7E61792ULL,0xF7E17C2CF8AC3056ULL,0xF9073CF8F801A97CULL,0xF88E0675F7D16F55ULL,0xF7F75492F748E1DBULL,0xF7F2281CF7E95FD6ULL,0xF7942C15F823C343ULL,
  0xF7E02D9FF7E12E95ULL,0xF8E2E478F7E511BBULL,0xF8B1C430F8D0EF7BULL,0xF8217615F88ED26EULL,0xF868C50FF78E1979ULL,0xF901368CF722E85AULL,0xF8217173F8731D88ULL,0xF8FF8CC4F7F89138ULL,
  0xF7D341A2F837675CULL,0xF7CECCC8F8796A4DULL,0xF7777F5CF8966BF6ULL,0xF83EBF38F885E808ULL,0xF7EE344FF7A37472ULL,0xF8009B72F73C5BADULL,0xF85A1235F744CE88ULL,0xF6EEBF4DF8437E3FULL,
  0xF71E64F0F7D59596ULL,0xF7FA9CF6F7F7D36FULL,0xF918F03AF8C520CBULL,0xF7F90062F7F33118ULL,0xF87C39C4F7D66C34ULL,0xF8983DE2F7A4B9EEULL,0xF90D47B1F8BFE387ULL,0xF784B6BDF7ECC0D7ULL,
  0xF7F3AC37F7B148EBULL,0xF866510DF7E11967ULL,0xF7DEA8E6F9005CC5ULL,0xF7E108ADF7F95651ULL,0xF804E44AF93A622BULL,0xF76CC033F8EF3697ULL,0xF747987BF8CB3466ULL,0xF7D2C349F7F64F58ULL,
  0xF8DCB97CF7FB9D77ULL,0xF78AA514F7E35D97ULL,0xF7F5B9CEF8B27CB4ULL,0xF88A451CF771A42AULL,0xF783798BF914EDCCULL,0xF7D43A31F731855BULL,0xF7E25487F918C5D6ULL,0xF925567EF79618B7ULL,
  0xF7FAF34CF7B77884ULL,0xF7A4EFFFF7456246ULL,0xF8000000F7EC05BEULL,0xF7D38850F8E42F51ULL,0xF7925684F73C1CB4ULL,0xF8246049F89D823DULL,0xF7ED7E21F7C882D7ULL,0xF7BE5508F92EFFC2ULL,
};

static const uint64_t __blob_Conv2D_35_zero_off_62[] = {
  0x0000000000000000ULL,
};

static const uint64_t __blob_Conv2D_35_mul_scale_65[] = {
  0x32AE1FD6295B3195ULL,0x2E8F2A2329442778ULL,0x283C2A1F38104A53ULL,0x309139533C832CBCULL,0x2C8133692B9F2D20ULL,0x454E2C202D7441F9ULL,0x305933CB266050EFULL,0x2A7E20823FDD20E0ULL,
  0x20A837A7282128DEULL,0x33A2324B35412888ULL,0x2EEA21A634AB414FULL,0x3347220222DC4299ULL,0x262B3200307F284FULL,0x267C373E3A4B363AULL,0x263A3E3825742E5BULL,0x24122E3B25772DEAULL,
  0x26E2304C3097300EULL,0x43C72F2440142D73ULL,0x32E135B7362738C3ULL,0x1FB825902398358EULL,0x3786374721022D87ULL,0x251C3074308720A1ULL,0x31203076318C2D4FULL,0x2705279927D923D4ULL,
  0x47F532B72EF92905ULL,0x27FC49C830DB2716ULL,0x1F4D25CE31F72C2DULL,0x23EF22BB252D2D4CULL,0x415028B43D392313ULL,0x36CF42B8286623F0ULL,0x210E2D9D1E5C280BULL,0x237C2BF63D902E4FULL,
};

static const uint64_t __blob_Conv2D_35_off_bias_68[] = {
  0xF7B65E8FF7EE32F1ULL,0xF6FECE20F8E328DFULL,0xF858225BF8569C0AULL,0xF7939375F8C730CDULL,0xF8C33E26F85709E9ULL,0xF7FA273AF8BDFEF1ULL,0xF77F349DF7E2802FULL,0xF7857996F7EB11ECULL,
  0xF81FCD1DF8B3C1B8ULL,0xF8632103F7122F19ULL,0xF89BA422F79DA180ULL,0xF730BC84F86B10D6ULL,0xF87B0F6CF7F71AF6ULL,0xF8A9DB1FF76B1D75ULL,0xF857CF68F85E1A17ULL,0xF6852A80F7A8E90EULL,
  0xF8845C5FF7DBD143ULL,0xF8AEC801F8212A31ULL,0xF81D0104F934B188ULL,0xF7F5B917F7E8D8EAULL,0xF67BBD9FF76F17A8ULL,0xF8C2E6D4F95C90FFULL,0xF892DC17F7DA824EULL,0xF871A6DDF7E1843BULL,
  0xF7DEF471F7F237E5ULL,0xF7BDF4B0F8BA08D3ULL,0xF8953343F7C794BCULL,0xF8DF54ADF7C304BEULL,0xF83D83CCF7DFD925ULL,0xF8A1B4BCF8FFAA68ULL,0xF824A573F94B2519ULL,0xF812CF12F787EC46ULL,
  0xF6FEC74BF6FF9CBEULL,0xF7312D49F84DCA19ULL,0xF7A3BF5CF8D203FAULL,0xF88ACC21F828D0BAULL,0xF82DC2E1F861A90DULL,0xF7C7A628F8994B90ULL,0xF7FB90FCF7967380ULL,0xF8A372CAF89607D3ULL,
  0xF786AC99F75A5375ULL,0xF87F76A6F9955A85ULL,0xF889A98AF7FE5DCEULL,0xF88EE068F7A6799DULL,0xF8869065F8725BE9ULL,0xF77EE875F880C48BULL,0xF6CDFB95F734DD51ULL,0xF94E19D1F911622FULL,
  0xF89A8755F8BB084AULL,0xF879B3ACF9F90AA2ULL,0xF9470B83F8AED65DULL,0xF835511CF736A0DBULL,0xF7C7CE90F88CCC6EULL,0xF8F8EEBBF87D1B57ULL,0xF85FA5D5F83DD6B6ULL,0xF7BBF15FF9AA0643ULL,
  0xF896F164F81E1C0BULL,0xF8BCDDFEF7BD8C0AULL,0xF7D96C42F8463774ULL,0xF72CA259F88E4064ULL,0xF79F6BA0F86C7596ULL,0xF7E32E1AF74B6C10ULL,0xF87A0267F8B78F0AULL,0xF88F6CC3F8012098ULL,
};

static const uint64_t __blob_Conv2D_40_zero_off_71[] = {
  0x0000000000000000ULL,
};

static const uint64_t __blob_Conv2D_40_mul_scale_74[] = {
  0x1872226018DD1B28ULL,0x258723A939F02955ULL,0x2A54246D1E1C2567ULL,0x20FB22CC23A728ADULL,0x2D4B20471B9429F8ULL,0x1F2B26682C1C2321ULL,0x32C425971B382098ULL,0x22EB262C247923CFULL,
  0x25A11261202C2E9BULL,0x222A2C1B236E1C47ULL,0x1C8C23BD1DE51CEDULL,0x1EFF23FD277F37C1ULL,0x14DF25922AA01FCBULL,0x39BD17931C8D1764ULL,0x1ED62B3919552656ULL,0x28D92F8621DD20D8ULL,
  0x2550288132051C1CULL,0x1CB52DC41FE72B26ULL,0x270924511C174200ULL,0x2DA42BEF1CC5272AULL,0x1D6F1F102746251BULL,0x2C01265A183E1F9AULL,0x1E1023EB221C2198ULL,0x29821F9A2F4F2DEAULL,
  0x1D9A2E27270E2593ULL,0x1F0D1DFB22FA2282ULL,0x3D531AE21B54224EULL,0x1F5D21A21E5B1F84ULL,0x1E7321D01FC81DBFULL,0x1E4C1D9C212A2C77ULL,0x279A24652FD22271ULL,0x259525CD26972FDBULL,
};

static const uint64_t __blob_Conv2D_40_off_bias_77[] = {
  0xF73ED102F78AD19BULL,0xF8D99B5BF92AA704ULL,0xF8B3B3FBF8440D75ULL,0xF7D91D8EF77FCB67ULL,0xF733C965F7EC0948ULL,0xF7E47A6FF6FAF2D4ULL,0xF76D8712F7F1B706ULL,0xF93AA13DF7FC7DB6ULL,
  0xF72DFD5CF7A65357ULL,0xF77B285CF7A20018ULL,0xF74A181EF927480AULL,0xF7AE5755F7F90E52ULL,0xF8FADE1DF7983FC4ULL,0xF6E904ACF7F7D4C7ULL,0xF941070AF78A9490ULL,0xF7F81BBEF7BB3F24ULL,
  0xF77BB623F90402EFULL,0xF955D1C0F8EE7B4CULL,0xF7F6B2CFF94A84CAULL,0xF78C2D32F7C87C68ULL,0xF7607066F76DD9B3ULL,0xF90DBC18F7677783ULL,0xF8D5249EF7F9054FULL,0xF803C5AEF8012053ULL,
  0xF77FF227F7C46970ULL,0xF8F55476F743A0B8ULL,0xF76B8AA8F76D79F9ULL,0xF82FE1F7F76626C3ULL,0xF902B9B2F760FADEULL,0xF7320843F720A92BULL,0xF92D79D8F9191917ULL,0xF7D8BA20F7A797C2ULL,
  0xF7A040E7F740D244ULL,0xF7B2EFECF7868601ULL,0xF7447912F735C31BULL,0xF743C8AFF7EF87AAULL,0xF7339162F7C6BDDCULL,0xF7255423F7CDBE57ULL,0xF73DF944F70ACC93ULL,0xF8F7E583F7F49E6AULL,
  0xF7E25DCBF774A7ECULL,0xF9213C5AF721BBA9ULL,0xF7494B34F73F6EA3ULL,0xF96B52CBF751A5BBULL,0xF9117C88F746F88BULL,0xF751B41BF7275F01ULL,0xF7CC4429F7BDE814ULL,0xF7682A98F71D51BDULL,
  0xF7143F20F6FBEE12ULL,0xF78124BFF9329480ULL,0xF78FDFD1F8DA05B2ULL,0xF75F2CBEF73BBF6BULL,0xF75C52BEF71BDC91ULL,0xF7EF27B5F738D75DULL,0xF722AAFEF8FB7CE6ULL,0xF7EFC00CF72FE5EFULL,
  0xF9158A70F9274F3DULL,0xF73C99D7F71541F8ULL,0xF7DA4B33F786DC17ULL,0xF72D0ECFF78EF4D6ULL,0xF7E4E576F7482A2FULL,0xF7FE35C1F7F07F4CULL,0xF735CBD3F84CF64AULL,0xF7EB9D6EF726A9A7ULL,
};

static const uint64_t __blob_Conv2D_44_zero_off_80[] = {
  0x0000000000000000ULL,
};

static const uint64_t __blob_Conv2D_44_mul_scale_83[] = {
  0x5B3D2434350F2518ULL,0x2A4A2E21296921B6ULL,0x21212ADD3AB92B52ULL,0x25CB26323C9E33E1ULL,0x258634704627264DULL,0x2C52318520972398ULL,0x2F321879254B26B5ULL,0x407C1FB422BA2DD6ULL,
  0x1EB8312A29992E72ULL,0x25A02D9D2E722CC2ULL,0x2CD827C52A5A2246ULL,0x2D8E22D839A61F36ULL,0x28322AA02BBD29EDULL,0x2EC82BEC25732D93ULL,0x46D42410568E3F62ULL,0x3261268E2AE728B9ULL,
  0x1B2021AE296F332CULL,0x42EC379C25623223ULL,0x354034A929A43B57ULL,0x1F2C25C2293825CBULL,0x29A537FA2F5C26F7ULL,0x2ACC2FA538A5283EULL,0x2A4A32BC28B530C8ULL,0x23B23C6B355B31EFULL,
  0x45633CF02B07316DULL,0x322B3AF33B362448ULL,0x2F2B2C3B30612E98ULL,0x295541CA22B12E78ULL,0x3A2D207A391A2109ULL,0x29EC22622998283BULL,0x28D523E01DE626F8ULL,0x205D297A2E6B3842ULL,
  0x24F5221C2B6325D6ULL,0x38CB317632521F0EULL,0x47E8317E3576280EULL,0x4DAB2C34204227D1ULL,0x2B1C2B3F2CAA3169ULL,0x3D392FE12C2D2AE5ULL,0x407027B3326E2A83ULL,0x1E6C34532973388BULL,
  0x35162B7838552704ULL,0x2514366A220C2AF0ULL,0x2AEB2D832E802E45ULL,0x2FC72D8A263E25FEULL,0x2927332923772902ULL,0x32DC22D91FE02DACULL,0x1B593153272D2F99ULL,0x3379261D20B6245FULL,
  0x421921BB325223C9ULL,0x547A29E1284043FEULL,0x2C442BBB2A792A4FULL,0x23EC2D3B2DE6249EULL,0x2AD2286836A82679ULL,0x26191E2733BD2EEAULL,0x2BF025942EAA295CULL,0x34302BC53C76323DULL,
  0x257B2B992ADA2610ULL,0x2CF81F163BE42B45ULL,0x1EBD31A9237A3F32ULL,0x23942961293C399AULL,0x253E41292D9524DAULL,0x2FF228C92A6643C7ULL,0x2C0121853777373EULL,0x262225182F622DCBULL,
};

static const uint64_t __blob_Conv2D_44_off_bias_86[] = {
  0xF9129B7BF8512F93ULL,0xF8895734F83AF0A6ULL,0xF7BD2DE8F832DAB0ULL,0xF943A0E2F8546D1CULL,0xF8B8A772F8107DFEULL,0xF94D7396F732F608ULL,0xF6D1DBF3F77495CDULL,0xF8609FA5F8A22426ULL,
  0xF8ED2229F8827271ULL,0xF7DD457FF8E6333EULL,0xF83FE8C9F918A66AULL,0xF9303646F9276B5AULL,0xF897BA94F82E3DE1ULL,0xF75772F6F83A7AACULL,0xF80D0E1DF6F9114AULL,0xF91D251BF806B790ULL,
  0xF82CA96FF960D450ULL,0xF8500235F6C7ACBCULL,0xF8920A86F974CC83ULL,0xF931C86AF8028B08ULL,0xF7D1A799F95B8C78ULL,0xF7E123E2F8633535ULL,0xF95528F5F82D3E05ULL,0xF8AB52C3F7F6109FULL,
  0xF7B42113F83AB3C3ULL,0xF9220DBFF7993262ULL,0xF8B2AA26F79F973DULL,0xF76C1350F8FF3BFEULL,0xF935645FF7ECB73FULL,0xF8D26C39F86E0124ULL,0xF89A624CF9C81B76ULL,0xF750BA5EF89B03A1ULL,
  0xF8D719BAF7C86809ULL,0xF84C00A1F8CFBA7BULL,0xF795A5D9F74A2610ULL,0xF8A42B66F6BAD1EFULL,0xF7E500D1F8DAD320ULL,0xF9058433F7ABDCDAULL,0xF8A0CD7CF81E66E7ULL,0xF7FBD43AF87AC2EDULL,
  0xF9F8AE1BF8D5C331ULL,0xF7F156C1F885099BULL,0xF9029C13F8166F77ULL,0xF6B17936F7E05A63ULL,0xF933AF9CF9472291ULL,0xF8F362AFF9097A46ULL,0xF964F462F83A4DCBULL,0xF866DDA0F79D8A95ULL,
  0xF7D05D92F7425756ULL,0xF82EF952F7902CBDULL,0xF9D3D198F92FA245ULL,0xF8AF1781F7DE49F4ULL,0xF79DBDE9F8AA8FD5ULL,0xF8AC34CBF7A0E26BULL,0xF7B34B4DF7D2416DULL,0xF851A4F4F76AF9E9ULL,
  0xF7D16DBAF7FACA5DULL,0xF827F11DFA15203EULL,0xF74AECF2F87F35A4ULL,0xF74FB4C8F8778188ULL,0xF8540FD4F8289906ULL,0xF858FA16F96BE891ULL,0xF8F483EBF8A35D06ULL,0xF91AEA82F735D46DULL,
  0xF7E5CE81F676BFBFULL,0xF94B53C8F802108CULL,0xF8FBED40F8D9CF03ULL,0xF80F1BACF8A8C492ULL,0xF7A6EB9FF7884DB0ULL,0xF8C60C3FF86C6623ULL,0xF857DD61F765CFCCULL,0xF726BF9EF8C31C5BULL,
  0xF5E9D798F8262C08ULL,0xF8F0039BF7CCE245ULL,0xF84C1226F66E4FADULL,0xF909A95EFA5BD0A1ULL,0xF9658FC7F78EE7F0ULL,0xF884D35CFA1D8188ULL,0xF70AD771F8561BD6ULL,0xF845650BF863845AULL,
  0xF83F2BA2F7398C97ULL,0xF86843E7F85B78D9ULL,0xF6C0E584F9053458ULL,0xF853C0CBF89DAC2BULL,0xF8B1C3C1F7EF903BULL,0xF951EDC1F8B733DFULL,0xF8114CEAF9752A93ULL,0xF78F36DEF7CC46DAULL,
  0xF970C682F6EDD9A1ULL,0xF77ABAD1F9BA8297ULL,0xF83CA0E4F67BEDB3ULL,0xF7A97903F7883716ULL,0xF98216AEF78A2E15ULL,0xF7C1BF89F856BD8FULL,0xF90D4896F7499F62ULL,0xF82C4658F89EE311ULL,
  0xF9F78DE3F717B514ULL,0xF9695914F7C9FF8BULL,0xF96CF1CDF8D99785ULL,0xF8F8238AF91A2086ULL,0xF75CAF3EF93AC992ULL,0xF92531A1F8119FB8ULL,0xF862D99DF8AD0068ULL,0xF8A7241CF8C01752ULL,
  0xF950510BF8140A1CULL,0xF7C8E252F6DFE87CULL,0xF8ED5C7DF6D51332ULL,0xF803758AF927C815ULL,0xF8C98490F87BCA72ULL,0xF881B1C4F9AB29F1ULL,0xF8B2A859F92D87B5ULL,0xF868BF4FF7D113D5ULL,
  0xF8A7B641F7E5DE82ULL,0xF9459196F964C43AULL,0xF79E98C1F9DC257AULL,0xF815D8F2F7F813B8ULL,0xF8B59FFEF8108251ULL,0xF6E4BD61F8393157ULL,0xF9831260F7C77A08ULL,0xF68E9A38F6469510ULL,
  0xF82F1FEEF8320329ULL,0xF88EBCA8F70C7F2CULL,0xF773FE23F923834FULL,0xF80F59BBF6DC2AE0ULL,0xF7D8DC36F7F841A9ULL,0xF6D0C32FF70FE275ULL,0xF81AF1E9F88DBB54ULL,0xF8442695F7FA266CULL,
};

static const uint64_t __blob_Conv2D_49_zero_off_89[] = {
  0x0000000000000000ULL,
};

static const uint64_t __blob_Conv2D_49_mul_scale_92[] = {
  0x20B126393498314AULL,0x1CA8226124B62EFFULL,0x2ADD25C2200E3BB7ULL,0x208F2C722A4712CDULL,0x41D13DCC274524DDULL,0x1F5532402C992DE0ULL,0x1D9A3FEF20FC1856ULL,0x23DA156624451B68ULL,
  0x352C253C22051B80ULL,0x25BC23E814B02E13ULL,0x295B256A337123D2ULL,0x216E26CB344E29AFULL,0x1EB7292B139C31CFULL,0x1D0D27032B7912E8ULL,0x2E8222B422133099ULL,0x21BF2C471CF4338FULL,
  0x2E45232323DF2C7FULL,0x1AB613D41F7B2218ULL,0x1976379124942F6FULL,0x276B23532074314CULL,0x19CA3B5613923075ULL,0x1C7F2E8D2E232993ULL,0x219B20A13EE72643ULL,0x17932A2C33722184ULL,
  0x1D8724FE279824D4ULL,0x17E41DA52EB42C06ULL,0x293028501B5A30DEULL,0x33B20D2E250E141CULL,0x27F52466277829D4ULL,0x2F9024A018472E37ULL,0x248C28532D0635CCULL,0x271820331C7821D4ULL,
  0x2F27257F23112524ULL,0x290F243629592749ULL,0x35BF2CE33D8F2D34ULL,0x280121C42E0E2DBEULL,0x21AF191E40E8189EULL,0x23872FF21A6B2B13ULL,0x231A2CB117551CD1ULL,0x2F36230D2E0C2291ULL,
  0x2F47243A213627E0ULL,0x21BD34B1285025FCULL,0x35BE286C2D3818BDULL,0x2E0627352F0A1B04ULL,0x28F023552FCB1DA6ULL,0x20252C7236C22695ULL,0x2EBB2886283F2553ULL,0x23582E1A28E71EEDULL,
  0x22F82DBF324526C9ULL,0x1D2C2ED426B62629ULL,0x25AE241C21A522D4ULL,0x33D439CC21B32902ULL,0x33962D7424653B7EULL,0x279E20461C3627D8ULL,0x22871CA62A502BAEULL,0x26B22A421C552758ULL,
  0x201422E826A22724ULL,0x25AD25F41F9C270CULL,0x3A3619B328182655ULL,0x1A3D262A242616EDULL,0x2FD5197A1AA51A95ULL,0x27252B1720722210ULL,0x2438291A1CA71113ULL,0x297812852A192EA6ULL,
};

static const uint64_t __blob_Conv2D_49_off_bias_95[] = {
  0xF72D344CF7DB8354ULL,0xF76D1D2CF81B62B8ULL,0xF829ED53F7F223F9ULL,0xF915E0ECF93C9A31ULL,0xF7CF358DF821EBBAULL,0xF6E6172FF7D5EC55ULL,0xF7ECAB61F8EA2BE0ULL,0xF89F095CF81DD277ULL,
  0xF7023B30F7DFF894ULL,0xF7322BF4F7B852ECULL,0xF7EE149FF7E53704ULL,0xF7CAC9D3F7E93986ULL,0xF84254BCF705AD45ULL,0xF8F8E531F8232DA8ULL,0xF9123B42F8CFB346ULL,0xF87C77B0F8E4104CULL,
  0xF8B95F1AF7F1D963ULL,0xF8035E2AF86555BEULL,0xF89796A4F73D05D8ULL,0xF92F8A84F780390EULL,0xF84710DBF822F38BULL,0xF7DC3A9DF7E6F80DULL,0xF80A3FAEF734DF17ULL,0xF87FB216F83BCF77ULL,
  0xF8D68235F7E9D1B6ULL,0xF7DFF6CAF7DAD7A4ULL,0xF766ECA1F8DA9900ULL,0xF854DDEEF730D46BULL,0xF811DF79F7FE5D64ULL,0xF747E696F7E9558BULL,0xF7D2367BF738E7DEULL,0xF881401AF744F984ULL,
  0xF7C2DE49F7FA2FFAULL,0xF8A9F817F8648F4EULL,0xF88EADE7F7A48FABULL,0xF79D6665F8EC7CE4ULL,0xF7DA100FF735658AULL,0xF8F51B4BF7E41087ULL,0xF905F21DF76CAB2DULL,0xF7180EFAF88092E9ULL,
  0xF9067552F8048207ULL,0xF8D7B7EDF8266759ULL,0xF7ECA42EF806AA3BULL,0xF87535D8F765351FULL,0xF7FB44DCF82945FBULL,0xF7DEBDDCF7E3E84FULL,0xF809E06AF7FBB02BULL,0xF8CEE39AF7BFCF5DULL,
  0xF7ABAC73F78C081BULL,0xF76A363BF7F3A06BULL,0xF95CC4B4F7B430C0ULL,0xF8C62D0FF7BD3B40ULL,0xF9070984F7D492CCULL,0xF853CDFDF723C7B0ULL,0xF8CDEEE9F8EEF4FEULL,0xF7719391F8D96D94ULL,
  0xF7F4D445F7E6AADEULL,0xF76B665FF9028E6FULL,0xF8E99003F7E71E7BULL,0xF830DB74F88CC54FULL,0xF7E8074AF7E98845ULL,0xF7B6DDD5F93545AAULL,0xF7C1660CF89681DCULL,0xF74F30BAF86FB9E1ULL,
  0xF7FBB26EF7777BD7ULL,0xF88E0B23F8297CA6ULL,0xF813507BF8662BB3ULL,0xF91284E3F705F2EEULL,0xF7E12CD0F73D3AD2ULL,0xF7AC4885F85A1621ULL,0xF73B1ACCF73BA28DULL,0xF7E32E14F7D34A20ULL,
  0xF78B17E6F7AC951EULL,0xF795BABDF7C083C8ULL,0xF7AE3913F7C9B08DULL,0xF8F86D22F8B5BA63ULL,0xF92B3BEDF819B8D1ULL,0xF7935899F905D55FULL,0xF7FACE18F7C37346ULL,0xF7E456FDF829E6FEULL,
  0xF8E00572F82D9DC2ULL,0xF7147918F8DD7D38ULL,0xF7536AB5F8CB95E3ULL,0xF8ED22B1F7D703DBULL,0xF813F586F863FAC3ULL,0xF766EE5FF78B97BDULL,0xF7E67D58F7FF174EULL,0xF8391D1FF748C8AAULL,
  0xF7F19F05F8F87536ULL,0xF79A5037F7F12C82ULL,0xF7ECD136F7368F89ULL,0xF83C8122F7FD45DBULL,0xF84A66BDF7703B83ULL,0xF8807988F7577D5FULL,0xF7F8789DF7F4EBE6ULL,0xF83C292AF7E7BA71ULL,
  0xF7A47662F74513E5ULL,0xF725D7C4F740AFEFULL,0xF7ED269FF77DC908ULL,0xF7E5C9A5F92C1C4AULL,0xF848EBA6F7746A49ULL,0xF807621DF797B8F5ULL,0xF7C1816FF7E66F01ULL,0xF7CEA873F7DFBD6CULL,
  0xF7F66B75F7E47255ULL,0xF7F285A2F7DCA48CULL,0xF7EB1DEAF7F7A412ULL,0xF7F29785F89EBC93ULL,0xF8986B73F7CA920AULL,0xF9038C6FF8453C58ULL,0xF8FCCD09F82E2E2BULL,0xF72AB1FAF85C00F7ULL,
  0xF7D36C2FF7ABB56FULL,0xF8F3DC78F81A4131ULL,0xF7E1A877F911E712ULL,0xF75F865DF7F976FDULL,0xF84C5749F81CD4EBULL,0xF787F198F8EA607CULL,0xF82ADB0CF7A29161ULL,0xF7CC6D6CF7F09750ULL,
  0xF71D030DF7FB5146ULL,0xF80183C9F8454762ULL,0xF84D9312F8D0AA62ULL,0xF7849389F7CFFC53ULL,0xF8F78964F8E4F294ULL,0xF7886CBDF84E4315ULL,0xF73887ADF8046E8DULL,0xF7D494DEF8D8B8D8ULL,
};

static const uint64_t __blob_Conv2D_53_zero_off_98[] = {
  0x0000000000000000ULL,
};

static const uint64_t __blob_Conv2D_53_mul_scale_101[] = {
  0x1C2D1AEC1D4E1C1EULL,0x1EED2327242428EAULL,0x1B3E259B1AF71F74ULL,0x219F1A8F1C11255BULL,0x25271E2928FF1C14ULL,0x2537232F20391DCAULL,0x17B5234E20981E44ULL,0x165F1EA725131EF8ULL,
  0x29B91FEC1BC01FE0ULL,0x334523FA20802ADBULL,0x20DB1A852EB621B7ULL,0x1D1F2AD420351FFAULL,0x1A6A1A2F33FD227CULL,0x1E9F1F7B253C261DULL,0x24A71CFD2BCF2D67ULL,0x2CB034E7210029D6ULL,
  0x1FB5297C2C8727EFULL,0x2724190322D51F24ULL,0x2D2521AC26931FABULL,0x23AC250920172417ULL,0x26C131E4239D1E20ULL,0x1AFE264C20312229ULL,0x25FD20F830561E6CULL,0x2C2B1C4B19B4211AULL,
  0x215F17D31DCC269BULL,0x19F71EF71CAD24E2ULL,0x2485284D1AAB1C5BULL,0x291121951D7F24FFULL,0x1C251F681DBD1EF9ULL,0x229C1F611B02235BULL,0x259525D22D58204DULL,0x2DA819B629CE2091ULL,
  0x1F1E195622FA24EEULL,0x21D71F4A1F2424A1ULL,0x2BC61A75205F1DA5ULL,0x23C123271C551A19ULL,0x1F44214330801F40ULL,0x27282B3D1D7A23FAULL,0x2FE61D8720FB3018ULL,0x3DEE26A1214B2051ULL,
  0x1B23222920142A9AULL,0x225520F420C92419ULL,0x274223B025A31FD7ULL,0x25741E5F19672045ULL,0x28111FF41E9F27B9ULL,0x1AB5206C20CF5854ULL,0x24AA23132BE528F2ULL,0x2598236124E824ECULL,
  0x1BAF29B02D952E5BULL,0x23A6231418302F4CULL,0x1C721CE0167521FEULL,0x1C262F7123A91F0BULL,0x2984222827321D20ULL,0x275B26D11AE32456ULL,0x184C24451C531C75ULL,0x1FD91E9920EF1CEAULL,
  0x2042222E3122208BULL,0x2DA737FF1F8C2E10ULL,0x1DD12CA221291E49ULL,0x24272069249B2355ULL,0x1C732AC61A4A244FULL,0x1DA027971D4C1EA9ULL,0x1EB827E61E78284CULL,0x2067218F209421C1ULL,
};

static const uint64_t __blob_Conv2D_53_off_bias_104[] = {
  0xF770E467F8842124ULL,0xF76DB9EFF7D3193FULL,0xF8B9B249F83D9606ULL,0xF75F0678F8AE05CFULL,0xF8DAB74BFA870954ULL,0xF974032FF75AA7A4ULL,0xF99B30E5F679A939ULL,0xF8E707B7F7352977ULL,
  0xF68B85D0F8726C16ULL,0xF871AE05F8A94EB7ULL,0xF6C63FDBF822904DULL,0xF66177F8F6901BCBULL,0xF922C870F8AA564CULL,0xFA4AD68BF73C7BCEULL,0xF593924AF87CF1DDULL,0xF8FA4CE5F6A77B69ULL,
  0xF6FBECD0F755CAB0ULL,0xF741D5EAF817FF08ULL,0xF820892BF81AE8C5ULL,0xF7C69925F7E451CBULL,0xF8225E67F6D112B4ULL,0xF8B01604F5A87C0FULL,0xF817ECE2F98B78D1ULL,0xF873E26DF985F65DULL,
  0xF83F2B96F72E21AEULL,0xF9333AC7F8414C6AULL,0xF882FD5CF8F4A5E1ULL,0xF82DFB7BF6C3211FULL,0xF77485F1F981C554ULL,0xF8B1C1C5F86D1BB2ULL,0xF88D7BD9F6F4933DULL,0xF8F0323CF89048ABULL,
  0xF92EBFFBF73B39FDULL,0xF919EC47F7DA93EAULL,0xF95309B5F7CEDF0BULL,0xF87367FAF717EC67ULL,0xF6FEFB77F8D401BAULL,0xF76B3E8AF844C990ULL,0xF7EC2257F895D066ULL,0xF8397A02F9155B11ULL,
  0xF720E257F822D902ULL,0xF7ECCE9CF7D07033ULL,0xF848C497F97CB69AULL,0xF697F642F8292F06ULL,0xF65301A9F77A594EULL,0xF8F721C5F95433E6ULL,0xF8619B1DF6BBE16BULL,0xF956B44EF768B63BULL,
  0xF930CAE6F8264E30ULL,0xF9EDA00FF8DEAF1DULL,0xF76EB057F5B514A4ULL,0xF7F9A9A9F95346AFULL,0xF938219AF8B7DBD6ULL,0xF869FFF4F4F34AD6ULL,0xF5BD0AADF85DE6ECULL,0xF82DFAAFF8CF7B86ULL,
  0xF800FFD9F8510537ULL,0xF752399CF908F9A4ULL,0xF87AFF52F7B0F57FULL,0xF71B3EECF7324004ULL,0xF7CC5A0CF88C6F1CULL,0xF7CA0599F85F636CULL,0xF7C82D25F8C7E20EULL,0xF845342CF84537AAULL,
  0xF7DD3B4BF69B8CEEULL,0xF79E95F8F9943927ULL,0xF8678D3FF8085B98ULL,0xF94D8EA2F9A215D2ULL,0xF7796464F8DE6D8BULL,0xF7C5648FF9620FE6ULL,0xF9070A11F68BF9DBULL,0xF86F7C05F7CF8177ULL,
  0xF718D26DF8ECA176ULL,0xF86A56F1F79D0B38ULL,0xF7F27F5BF79EB5A0ULL,0xF82FB76FF97DB2ACULL,0xF6A2C05AF84748ACULL,0xF5DBE1CBFA6A3702ULL,0xF8619415F8E17EEEULL,0xF83BCE5DF93CF783ULL,
  0xF7C74337F882F44CULL,0xF89054E1F6E35917ULL,0xF7471469F7C8127BULL,0xF7260F31F6D27C04ULL,0xF831653BF70A3EAFULL,0xF9344DACF6D021A0ULL,0xF7021B1FF993A9A8ULL,0xF835643AF8E56FAAULL,
  0xF8FE7574F8BDFC65ULL,0xF6085DE9F6E9E5B4ULL,0xF9217757F7E61101ULL,0xF755D6BEF81FB69EULL,0xF898DDEDF774F470ULL,0xF8922CF5F8FD0C3DULL,0xF6A3AFBFF936DABAULL,0xF66C5273F875D31CULL,
  0xF77F9208F87DDAA2ULL,0xF67C86FFF7590039ULL,0xF810A44FF9DE6EBFULL,0xF80DCEE3F6890D8DULL,0xF7F1B35BF8789C8DULL,0xF82A4269F86CD587ULL,0xF80FE52FF705696DULL,0xF7A31885F991DCB9ULL,
  0xF8236CB4F86177C8ULL,0xF9113A4AF87C90B4ULL,0xF87138D8F75622B5ULL,0xF98A6A64F6FB98FFULL,0xF80180BCF7DF3BD2ULL,0xF8568E2EF9C298AEULL,0xF8A3CA86F74C6770ULL,0xF91AD650F673E61DULL,
  0xF920F478F8FA43E5ULL,0xF7A68917F8CA07AFULL,0xF6CFD7BCF5BDCAE0ULL,0xF8E198E7F829CBBFULL,0xF7B6BDF6F8C6903EULL,0xF840C2AEF7D1947BULL,0xF988AA57F8499E3DULL,0xF9BC3989F6FB964FULL,
  0xF9018D07FA568DB0ULL,0xF877F72EF75A03F5ULL,0xF9B658DBF6AE975BULL,0xF4B3A4D1F86E254CULL,0xF7BCCD26F9281380ULL,0xF911A210F73A4296ULL,0xF745A575FA2BEA37ULL,0xF6C061FFF7C160EAULL,
};

static const uint64_t __blob_RequantizeLinear_inserted_id216_217_requantize_zero[] = {
  0x0000000000000000ULL,
};

static const uint64_t __blob_Gemm_59_conv_4_zero_off_107[] = {
  0x0000000000000000ULL,
};

static const uint64_t __blob_Gemm_59_conv_4_mul_scale_110[] = {
  0x0000000000005C5DULL,
};

static const uint64_t __blob_Gemm_59_conv_4_off_bias_113[] = {
  0x04247AC50422D976ULL,0x041F344604232B9CULL,0x041E82D6041C0F3CULL,0x041CBA1A042190E0ULL,0x04202425041C1918ULL,
};


void trace_ec__ec_blob_1(void) {
  ec_trace_start_blob("_ec_blob_1");
  ec_trace_start_epoch(1);
  {
  }
  {
  }
  ec_trace_end_epoch(1);
  ec_trace_start_epoch(2);
  {
    /* Unit= 18 [ARITH_ACC_V2 0] */
    /* kind=Add node=Quantize_5 */
    static const LL_Arithacc_InitTypeDef Quantize_5_init2 = {
      .rounding_x = 0,
      .saturation_x = 0,
      .round_mode_x = 0,
      .inbytes_x = 2,
      .outbytes_x = 2,
      .shift_x = 0,
      .rounding_y = 0,
      .saturation_y = 0,
      .round_mode_y = 0,
      .inbytes_y = 1,
      .outbytes_y = 1,
      .combinebc = 1,
      .clipout = 0,
      .shift_y = 0,
      .rounding_o = 1,
      .saturation_o = 1,
      .round_mode_o = 1,
      .relu_mode_o = 0,
      .outbytes_o = 1,
      .shift_o = 14,
      .scalar = 1,
      .dualinput = 0,
      .operation = ARITH_AFFINE,
      .bcast = ARITH_BCAST_CHAN,
      .Ax_shift = 0,
      .By_shift = 0,
      .C_shift = 0,
      .fWidth = 96,
      .fHeight = 64,
      .fChannels = 1,
      .batchDepth = 1,
      .clipmin = 0,
      .clipmax = 0,
      .A_scalar = 16384,
      .B_scalar = -32,
      .C_scalar = (short)0,
      .A_vector = {0},
      .B_vector = {0},
      .C_vector = {0},
      .vec_precision = {8, 8, 8},
    };

    /* Unit=ARITH_ACC_V2 */
    LL_Arithacc_Init(0, &Quantize_5_init2);


    /* Dma inputs units to cycle: */
    /* Unit= 3 [STREAM_ENG_V2 3] */
    /* Emit conf for STREAM_ENG_V2 node=Quantize_5 input ports=0 range=1[0,6144] */

    static const LL_Streng_TensorInitTypeDef Quantize_5_dma_init_in_0_2 = {
      /* from memory with batch=1 */
      .dir = 0,
      .raw = 1,
      .noblk = 0,
      .align_right = 0,
      .nbits_unsigned = 1,
      .addr_base = {(unsigned char *)(0x342e0000UL) /* Equivalent hex address = 0x342e0000UL */}, /* Dequantize_4_out_0 */
      .offset_start = 0,
      .offset_end = 6144,
      .offset_limit = 6208,
      .frame_count = 0,
      .fwidth = 0,
      .fheight = 0,
      .batch_depth = 0,
      .batch_offset = 0,
      .frame_offset = 6144,
      .line_offset = 0,
      .loop_offset = 0,
      .frame_loop_cnt = 0,
      .frame_tot_cnt = 1,
      .nbits_in = 8,
      .nbits_out = 8,
    };

    /* Unit=STREAM_ENG_V2 */
    LL_Streng_TensorInit(3, &Quantize_5_dma_init_in_0_2, 1);


    /* Dma input bandwidth from memory pools: */
    /* npuRAM5 -> 6144 */

    /* Dma output units from cycle: */
    /* Unit= 9 [STREAM_ENG_V2 9] */
    /* Emit conf for STREAM_ENG_V2 node=Quantize_5 output ports=0 range=1[49152,55296] */

    static const LL_Streng_TensorInitTypeDef Quantize_5_dma_init_out_0_2 = {
      /* transpose to memory with rank=4 */
      .dir = 1,
      .noblk = 0,
      .align_right = 0,
      .nbits_unsigned = 0,
      .addr_base = {(unsigned char *)(0x342e0000UL) /* Equivalent hex address = 0x342e0000UL */}, /* Quantize_5_out_0 */
      .offset_start = 49152,
      .offset_limit = 55360,
      .frame_count = 0,
      .fwidth = 1,
      .fheight = 96,
      .batch_depth = 1,
      .batch_offset = 1,
      .frame_offset = 1,
      .line_offset = 64,
      .loop_offset = 6144,
      .frame_loop_cnt = 64,
      .frame_tot_cnt = 64,
      .nbits_in = 8,
      .nbits_out = 8,
    };

    /* Unit=STREAM_ENG_V2 */
    LL_Streng_TensorInit(9, &Quantize_5_dma_init_out_0_2, 1);


    /* Dma output bandwidth to memory pools: */
    /* npuRAM5 <- 6144 */

    static const LL_Switch_InitTypeDef switch_init_in_2[] = {
      { LL_Switch_Init_Dest() = ATONN_DSTPORT(STRSWITCH, 0, ARITH, 0, 0), LL_Switch_Init_Source(0) = ATONN_SRCPORT(STRSWITCH, 0, STRENG, 3, 0), LL_Switch_Init_Context(0) = 1, LL_Switch_Init_Frames(0) = 0, }, /* Quantize_5 IN: in unit=ARITH_ACC_V2 0 in port=0 out unit=STREAM_ENG_V2 3 out port=0 */
      { LL_Switch_Init_Dest() = ATONN_DSTPORT(STRSWITCH, 0, STRENG, 9, 0), LL_Switch_Init_Source(0) = ATONN_SRCPORT(STRSWITCH, 0, ARITH, 0, 0), LL_Switch_Init_Context(0) = 1, LL_Switch_Init_Frames(0) = 0, }, /* Quantize_5 OUT: in unit=STREAM_ENG_V2 9 in port=0 out unit=ARITH_ACC_V2 0 out port=0 */
    };


    /* epoch=2 */
    LL_Switch_Init(switch_init_in_2, 2);

    static LL_ATON_EnableUnits_InitTypeDef Enable_epoch_2_all_units[] = {
      { {STRENG, 9} }, /* STREAM_ENG_V2 */
      { {ARITH, 0} }, /* ARITH_ACC_V2 */
      { {STRENG, 3} }, /* STREAM_ENG_V2 */
    };


    LL_ATON_EnableUnits_Init(Enable_epoch_2_all_units, 3);

  }

  ec_trace_wait_epoch_end(0x200);

  {
    static const LL_Switch_DeinitTypeDef switch_deinit_in_2[] = {
      { LL_Switch_Init_Dest() = ATONN_DSTPORT(STRSWITCH, 0, ARITH, 0, 0), LL_Switch_Init_Source(0) = ATONN_SRCPORT(STRSWITCH, 0, STRENG, 3, 0), LL_Switch_Init_Context(0) = 1, LL_Switch_Init_Frames(0) = 0, }, /* Quantize_5 IN: in unit=ARITH_ACC_V2 0 in port=0 out unit=STREAM_ENG_V2 3 out port=0 */
      { LL_Switch_Init_Dest() = ATONN_DSTPORT(STRSWITCH, 0, STRENG, 9, 0), LL_Switch_Init_Source(0) = ATONN_SRCPORT(STRSWITCH, 0, ARITH, 0, 0), LL_Switch_Init_Context(0) = 1, LL_Switch_Init_Frames(0) = 0, }, /* Quantize_5 OUT: in unit=STREAM_ENG_V2 9 in port=0 out unit=ARITH_ACC_V2 0 out port=0 */
    };


    /* epoch=2 */
    LL_Switch_Deinit(switch_deinit_in_2, 2);

    static LL_ATON_DisableUnits_InitTypeDef Disable_epoch_2_all_units[] = {
      { {STRENG, 9} }, /* STREAM_ENG_V2 */
      { {ARITH, 0} }, /* ARITH_ACC_V2 */
      { {STRENG, 3} }, /* STREAM_ENG_V2 */
    };


    LL_ATON_DisableUnits_Init(Disable_epoch_2_all_units, 3);

  }
  ec_trace_end_epoch(2);
  ec_trace_start_epoch(3);
  {
    /* Unit= 10 [CONV_ACC_V2 0] */
    /* kind=Conv node=Conv2D_8 */
    static const LL_Convacc_InitTypeDef Conv2D_8_init3 = {
      .simd = 2,
      .fsub = 40,
      .accumulate = 0,
      .rounding_f = 0,
      .saturation_f = 0,
      .round_mode_f = 0,
      .f_unsigned = 0,
      .k_unsigned = 0,
      .deepmode = 0,
      .dss2mode = 0,
      .kseten = 0,
      .zfbias = 0,
      .inbytes_f = 2,
      .shift_f = 0,
      .shift_a = 2,
      .rounding_o = 1,
      .saturation_o = 1,
      .round_mode_o = 1,
      .relu_mode_o = 0,
      .outbytes_o = 2,
      .shift_o = 2,
      .raw_o = 0,
      .fWidth = 64,
      .fHeight = 96,
      .kernelWidth = 3,
      .kernelHeight = 3,
      .nKernels = 4,
      .batchDepth = 1,
      .hstride = 2,
      .vstride = 2,
      .left_padding = 0,
      .right_padding = 1,
      .top_padding = 0,
      .bot_padding = 1,
      .left_crop = 0,
      .right_crop = 63,
      .top_crop = 0,
      .bot_crop = 95,
    };

    /* Unit=CONV_ACC_V2 */
    LL_Convacc_Init(0, &Conv2D_8_init3);


    /* Unit= 19 [ARITH_ACC_V2 1] */
    /* kind=Mul node=Conv2D_8_mul_scale_9 */
    static const LL_Arithacc_InitTypeDef Conv2D_8_mul_scale_9_init3 = {
      .rounding_x = 0,
      .saturation_x = 0,
      .round_mode_x = 0,
      .inbytes_x = 2,
      .outbytes_x = 2,
      .shift_x = 0,
      .rounding_y = 0,
      .saturation_y = 0,
      .round_mode_y = 0,
      .inbytes_y = 2,
      .outbytes_y = 2,
      .combinebc = 0,
      .clipout = 0,
      .shift_y = 0,
      .rounding_o = 1,
      .saturation_o = 1,
      .round_mode_o = 1,
      .relu_mode_o = 0,
      .outbytes_o = 2,
      .shift_o = 14,
      .scalar = 0,
      .dualinput = 0,
      .operation = ARITH_AFFINE,
      .bcast = ARITH_BCAST_CHAN,
      .Ax_shift = 0,
      .By_shift = 0,
      .C_shift = 0,
      .fWidth = 32,
      .fHeight = 48,
      .fChannels = 32,
      .batchDepth = 4,
      .clipmin = 0,
      .clipmax = 0,
      .A_scalar = 1,
      .B_scalar = 0,
      .C_scalar = 0,
      .A_vector = { (unsigned char *)(__blob_Conv2D_8_mul_scale_11) },
      .B_vector = {0},
      .C_vector = {0},
      .vec_precision = {16, 16, 16},
    };

    /* Unit=ARITH_ACC_V2 */
    LL_Arithacc_Init(1, &Conv2D_8_mul_scale_9_init3);


    /* Unit= 20 [ARITH_ACC_V2 2] */
    /* kind=Add node=Conv2D_8_off_bias_12 */
    static const LL_Arithacc_InitTypeDef Conv2D_8_off_bias_12_init3 = {
      .rounding_x = 0,
      .saturation_x = 0,
      .round_mode_x = 0,
      .inbytes_x = 2,
      .outbytes_x = 2,
      .shift_x = 0,
      .rounding_y = 0,
      .saturation_y = 0,
      .round_mode_y = 0,
      .inbytes_y = 2,
      .outbytes_y = 2,
      .combinebc = 1,
      .clipout = 0,
      .shift_y = 0,
      .rounding_o = 1,
      .saturation_o = 1,
      .round_mode_o = 1,
      .relu_mode_o = 0,
      .outbytes_o = 1,
      .shift_o = 20,
      .scalar = 0,
      .dualinput = 0,
      .operation = ARITH_AFFINE,
      .bcast = ARITH_BCAST_CHAN,
      .Ax_shift = 0,
      .By_shift = 0,
      .C_shift = 0,
      .fWidth = 32,
      .fHeight = 48,
      .fChannels = 32,
      .batchDepth = 4,
      .clipmin = 0,
      .clipmax = 0,
      .A_scalar = 31717,
      .B_scalar = 0,
      .C_scalar = (short)0,
      .A_vector = {0},
      .B_vector = {0},
      .C_vector = { (unsigned char *)(__blob_Conv2D_8_off_bias_14) },
      .vec_precision = {16, 16, 32},
    };

    /* Unit=ARITH_ACC_V2 */
    LL_Arithacc_Init(2, &Conv2D_8_off_bias_12_init3);


    /* Unit= 16 [ACTIV_ACC_V2 0] */
    /* kind=Relu node=Relu_11 */
    static const LL_Activacc_InitTypeDef Relu_11_init3 = {
      .rounding_f = 0,
      .saturation_f = 0,
      .round_mode_f = 0,
      .inbytes_f = 1,
      .outbytes_f = 1,
      .rounding_o = 1,
      .saturation_o = 1,
      .round_mode_o = 1,
      .relu_mode_o = 0,
      .outbytes_o = 1,
      .signedop = 1,
      .shift_f = 0,
      .shift_o = 0,
      .parameter = 65408,
      .parameter_2 = 65408,
      .fsub = 0,
      .operation = ACTIV_TRELU,
    };

    /* Unit=ACTIV_ACC_V2 */
    LL_Activacc_Init(0, &Relu_11_init3);


    /* Unit= 21 [ARITH_ACC_V2 3] */
    /* kind=Sub node=Conv2D_13_suboff_15 */
    static const LL_Arithacc_InitTypeDef Conv2D_13_suboff_15_init3 = {
      .rounding_x = 0,
      .saturation_x = 0,
      .round_mode_x = 0,
      .inbytes_x = 1,
      .outbytes_x = 1,
      .shift_x = 0,
      .rounding_y = 0,
      .saturation_y = 0,
      .round_mode_y = 0,
      .inbytes_y = 1,
      .outbytes_y = 1,
      .combinebc = 1,
      .clipout = 0,
      .shift_y = 0,
      .rounding_o = 0,
      .saturation_o = 0,
      .round_mode_o = 1,
      .relu_mode_o = 0,
      .outbytes_o = 1,
      .shift_o = 14,
      .scalar = 1,
      .dualinput = 0,
      .operation = ARITH_AFFINE,
      .bcast = ARITH_BCAST_SCALAR,
      .Ax_shift = 0,
      .By_shift = 0,
      .C_shift = 0,
      .fWidth = 32,
      .fHeight = 48,
      .fChannels = 32,
      .batchDepth = 4,
      .clipmin = 0,
      .clipmax = 0,
      .A_scalar = 16384,
      .B_scalar = 32,
      .C_scalar = (short)0,
      .A_vector = {0},
      .B_vector = {0},
      .C_vector = {0},
      .vec_precision = {8, 8, 8},
    };

    /* Unit=ARITH_ACC_V2 */
    LL_Arithacc_Init(3, &Conv2D_13_suboff_15_init3);


    /* Dma inputs units to cycle: */
    /* Unit= 0 [STREAM_ENG_V2 0] */
    /* Emit conf for STREAM_ENG_V2 node=Conv2D_8 input ports=0 range=1[49152,55296] */

    static const LL_Streng_TensorInitTypeDef Conv2D_8_dma_init_in_0_3 = {
      /* 64x96x1(8 bits) */
      .dir = 0,
      .raw = 1,
      .noblk = 0,
      .align_right = 1,
      .nbits_unsigned = 0,
      .addr_base = {(unsigned char *)(0x342e0000UL) /* Equivalent hex address = 0x342e0000UL */}, /* Conv2D_8_zero_off_out_7 */
      .offset_start = 49152,
      .offset_end = 55296,
      .offset_limit = 55360,
      .frame_count = 0,
      .fwidth = 0,
      .fheight = 0,
      .batch_depth = 0,
      .batch_offset = 0,
      .frame_offset = 6144,
      .line_offset = 0,
      .loop_offset = 0,
      .frame_loop_cnt = 1,
      .frame_tot_cnt = 8,
      .nbits_in = 8,
      .nbits_out = 16,
    };

    /* Unit=STREAM_ENG_V2 */
    LL_Streng_TensorInit(0, &Conv2D_8_dma_init_in_0_3, 1);

    /* Unit= 6 [STREAM_ENG_V2 6] */
    /* Emit conf for STREAM_ENG_V2 node=Conv2D_8 input ports=1 range=8[178032,178320] */

    static const LL_Streng_TensorInitTypeDef Conv2D_8_dma_init_in_1_3 = {
      /* 32x3x3x1(8 bits) */
      .dir = 0,
      .raw = 1,
      .continuous = 1,
      .noblk = 0,
      .align_right = 1,
      .nbits_unsigned = 0,
      .cacheable = 1,
      .cache_allocate = 0,
      .addr_base = {(unsigned char *)(0x70380000UL) /* Equivalent hex address = 0x70380000UL */}, /* Conv2D_8_weights */
      .offset_start = 178032,
      .offset_end = 178320,
      .offset_limit = 178384,
      .frame_count = 0,
      .fwidth = 0,
      .fheight = 0,
      .batch_depth = 0,
      .batch_offset = 0,
      .frame_offset = 0,
      .line_offset = 0,
      .loop_offset = 0,
      .frame_loop_cnt = 0,
      .frame_tot_cnt = 1,
      .nbits_in = 8,
      .nbits_out = 8,
    };

    /* Unit=STREAM_ENG_V2 */
    LL_Streng_TensorInit(6, &Conv2D_8_dma_init_in_1_3, 1);


    /* Dma input bandwidth from memory pools: */
    /* npuRAM5 -> 49152 */
    /* octoFlash -> 288 */

    /* Dma output units from cycle: */
    /* Unit= 7 [STREAM_ENG_V2 7] */
    /* Emit conf for STREAM_ENG_V2 node=Conv2D_13_suboff_15 output ports=0 range=1[0,49152] */

    static const LL_Streng_TensorInitTypeDef Conv2D_13_suboff_15_dma_init_out_0_3 = {
      /* to memory canonical from batch=4 */
      .dir = 1,
      .noblk = 0,
      .align_right = 0,
      .nbits_unsigned = 1,
      .addr_base = {(unsigned char *)(0x342e0000UL) /* Equivalent hex address = 0x342e0000UL */}, /* Conv2D_13_zero_off_out_16 */
      .offset_start = 0,
      .offset_limit = 49216,
      .frame_count = 0,
      .fwidth = 32,
      .fheight = 48,
      .batch_depth = 4,
      .batch_offset = 32,
      .frame_offset = 4,
      .line_offset = 0,
      .loop_offset = 49152,
      .frame_loop_cnt = 8,
      .frame_tot_cnt = 8,
      .nbits_in = 8,
      .nbits_out = 8,
    };

    /* Unit=STREAM_ENG_V2 */
    LL_Streng_TensorInit(7, &Conv2D_13_suboff_15_dma_init_out_0_3, 1);


    /* Dma output bandwidth to memory pools: */
    /* npuRAM5 <- 49152 */

    static const LL_Switch_InitTypeDef switch_init_in_3[] = {
      { LL_Switch_Init_Dest() = ATONN_DSTPORT(STRSWITCH, 0, CONVACC, 0, 0), LL_Switch_Init_Source(0) = ATONN_SRCPORT(STRSWITCH, 0, STRENG, 0, 0), LL_Switch_Init_Context(0) = 1, LL_Switch_Init_Frames(0) = 0, }, /* Conv2D_8 IN: in unit=CONV_ACC_V2 0 in port=0 out unit=STREAM_ENG_V2 0 out port=0 */
      { LL_Switch_Init_Dest() = ATONN_DSTPORT(STRSWITCH, 0, CONVACC, 0, 1), LL_Switch_Init_Source(0) = ATONN_SRCPORT(STRSWITCH, 0, STRENG, 6, 0), LL_Switch_Init_Context(0) = 1, LL_Switch_Init_Frames(0) = 0, }, /* Conv2D_8 IN: in unit=CONV_ACC_V2 0 in port=1 out unit=STREAM_ENG_V2 6 out port=0 */
      { LL_Switch_Init_Dest() = ATONN_DSTPORT(STRSWITCH, 0, ARITH, 1, 0), LL_Switch_Init_Source(0) = ATONN_SRCPORT(STRSWITCH, 0, CONVACC, 0, 0), LL_Switch_Init_Context(0) = 1, LL_Switch_Init_Frames(0) = 0, }, /* Conv2D_8_mul_scale_9 IN: in unit=ARITH_ACC_V2 1 in port=0 out unit=CONV_ACC_V2 0 out port=0 */
      { LL_Switch_Init_Dest() = ATONN_DSTPORT(STRSWITCH, 0, ARITH, 2, 0), LL_Switch_Init_Source(0) = ATONN_SRCPORT(STRSWITCH, 0, ARITH, 1, 0), LL_Switch_Init_Context(0) = 1, LL_Switch_Init_Frames(0) = 0, }, /* Conv2D_8_off_bias_12 IN: in unit=ARITH_ACC_V2 2 in port=0 out unit=ARITH_ACC_V2 1 out port=0 */
      { LL_Switch_Init_Dest() = ATONN_DSTPORT(STRSWITCH, 0, ACTIV, 0, 0), LL_Switch_Init_Source(0) = ATONN_SRCPORT(STRSWITCH, 0, ARITH, 2, 0), LL_Switch_Init_Context(0) = 1, LL_Switch_Init_Frames(0) = 0, }, /* Relu_11 IN: in unit=ACTIV_ACC_V2 0 in port=0 out unit=ARITH_ACC_V2 2 out port=0 */
      { LL_Switch_Init_Dest() = ATONN_DSTPORT(STRSWITCH, 0, ARITH, 3, 0), LL_Switch_Init_Source(0) = ATONN_SRCPORT(STRSWITCH, 0, ACTIV, 0, 0), LL_Switch_Init_Context(0) = 1, LL_Switch_Init_Frames(0) = 0, }, /* Conv2D_13_suboff_15 IN: in unit=ARITH_ACC_V2 3 in port=0 out unit=ACTIV_ACC_V2 0 out port=0 */
      { LL_Switch_Init_Dest() = ATONN_DSTPORT(STRSWITCH, 0, STRENG, 7, 0), LL_Switch_Init_Source(0) = ATONN_SRCPORT(STRSWITCH, 0, ARITH, 3, 0), LL_Switch_Init_Context(0) = 1, LL_Switch_Init_Frames(0) = 0, }, /* Conv2D_13_suboff_15 OUT: in unit=STREAM_ENG_V2 7 in port=0 out unit=ARITH_ACC_V2 3 out port=0 */
    };


    /* epoch=3 */
    LL_Switch_Init(switch_init_in_3, 7);

    static LL_ATON_EnableUnits_InitTypeDef Enable_epoch_3_all_units[] = {
      { {STRENG, 7} }, /* STREAM_ENG_V2 */
      { {CONVACC, 0} }, /* CONV_ACC_V2 */
      { {ACTIV, 0} }, /* ACTIV_ACC_V2 */
      { {ARITH, 1} }, /* ARITH_ACC_V2 */
      { {ARITH, 2} }, /* ARITH_ACC_V2 */
      { {ARITH, 3} }, /* ARITH_ACC_V2 */
      { {STRENG, 0} }, /* STREAM_ENG_V2 */
      { {STRENG, 6} }, /* STREAM_ENG_V2 */
    };


    LL_ATON_EnableUnits_Init(Enable_epoch_3_all_units, 8);

  }

  ec_trace_wait_epoch_end(0x80);

  {
    static const LL_Switch_DeinitTypeDef switch_deinit_in_3[] = {
      { LL_Switch_Init_Dest() = ATONN_DSTPORT(STRSWITCH, 0, CONVACC, 0, 0), LL_Switch_Init_Source(0) = ATONN_SRCPORT(STRSWITCH, 0, STRENG, 0, 0), LL_Switch_Init_Context(0) = 1, LL_Switch_Init_Frames(0) = 0, }, /* Conv2D_8 IN: in unit=CONV_ACC_V2 0 in port=0 out unit=STREAM_ENG_V2 0 out port=0 */
      { LL_Switch_Init_Dest() = ATONN_DSTPORT(STRSWITCH, 0, CONVACC, 0, 1), LL_Switch_Init_Source(0) = ATONN_SRCPORT(STRSWITCH, 0, STRENG, 6, 0), LL_Switch_Init_Context(0) = 1, LL_Switch_Init_Frames(0) = 0, }, /* Conv2D_8 IN: in unit=CONV_ACC_V2 0 in port=1 out unit=STREAM_ENG_V2 6 out port=0 */
      { LL_Switch_Init_Dest() = ATONN_DSTPORT(STRSWITCH, 0, ARITH, 1, 0), LL_Switch_Init_Source(0) = ATONN_SRCPORT(STRSWITCH, 0, CONVACC, 0, 0), LL_Switch_Init_Context(0) = 1, LL_Switch_Init_Frames(0) = 0, }, /* Conv2D_8_mul_scale_9 IN: in unit=ARITH_ACC_V2 1 in port=0 out unit=CONV_ACC_V2 0 out port=0 */
      { LL_Switch_Init_Dest() = ATONN_DSTPORT(STRSWITCH, 0, ARITH, 2, 0), LL_Switch_Init_Source(0) = ATONN_SRCPORT(STRSWITCH, 0, ARITH, 1, 0), LL_Switch_Init_Context(0) = 1, LL_Switch_Init_Frames(0) = 0, }, /* Conv2D_8_off_bias_12 IN: in unit=ARITH_ACC_V2 2 in port=0 out unit=ARITH_ACC_V2 1 out port=0 */
      { LL_Switch_Init_Dest() = ATONN_DSTPORT(STRSWITCH, 0, ACTIV, 0, 0), LL_Switch_Init_Source(0) = ATONN_SRCPORT(STRSWITCH, 0, ARITH, 2, 0), LL_Switch_Init_Context(0) = 1, LL_Switch_Init_Frames(0) = 0, }, /* Relu_11 IN: in unit=ACTIV_ACC_V2 0 in port=0 out unit=ARITH_ACC_V2 2 out port=0 */
      { LL_Switch_Init_Dest() = ATONN_DSTPORT(STRSWITCH, 0, ARITH, 3, 0), LL_Switch_Init_Source(0) = ATONN_SRCPORT(STRSWITCH, 0, ACTIV, 0, 0), LL_Switch_Init_Context(0) = 1, LL_Switch_Init_Frames(0) = 0, }, /* Conv2D_13_suboff_15 IN: in unit=ARITH_ACC_V2 3 in port=0 out unit=ACTIV_ACC_V2 0 out port=0 */
      { LL_Switch_Init_Dest() = ATONN_DSTPORT(STRSWITCH, 0, STRENG, 7, 0), LL_Switch_Init_Source(0) = ATONN_SRCPORT(STRSWITCH, 0, ARITH, 3, 0), LL_Switch_Init_Context(0) = 1, LL_Switch_Init_Frames(0) = 0, }, /* Conv2D_13_suboff_15 OUT: in unit=STREAM_ENG_V2 7 in port=0 out unit=ARITH_ACC_V2 3 out port=0 */
    };


    /* epoch=3 */
    LL_Switch_Deinit(switch_deinit_in_3, 7);

    static LL_ATON_DisableUnits_InitTypeDef Disable_epoch_3_all_units[] = {
      { {STRENG, 7} }, /* STREAM_ENG_V2 */
      { {CONVACC, 0} }, /* CONV_ACC_V2 */
      { {ACTIV, 0} }, /* ACTIV_ACC_V2 */
      { {ARITH, 1} }, /* ARITH_ACC_V2 */
      { {ARITH, 2} }, /* ARITH_ACC_V2 */
      { {ARITH, 3} }, /* ARITH_ACC_V2 */
      { {STRENG, 0} }, /* STREAM_ENG_V2 */
      { {STRENG, 6} }, /* STREAM_ENG_V2 */
    };


    LL_ATON_DisableUnits_Init(Disable_epoch_3_all_units, 8);

  }
  ec_trace_end_epoch(3);
  ec_trace_start_epoch(4);
  {
    /* Unit= 11 [CONV_ACC_V2 1] */
    /* kind=Conv node=Conv2D_13 */
    static const LL_Convacc_InitTypeDef Conv2D_13_init4 = {
      .simd = 1,
      .fsub = 0,
      .accumulate = 0,
      .rounding_f = 0,
      .saturation_f = 0,
      .round_mode_f = 0,
      .f_unsigned = 1,
      .k_unsigned = 0,
      .deepmode = 0,
      .dss2mode = 0,
      .kseten = 0,
      .zfbias = 0,
      .inbytes_f = 1,
      .shift_f = 0,
      .shift_a = 2,
      .rounding_o = 1,
      .saturation_o = 1,
      .round_mode_o = 1,
      .relu_mode_o = 0,
      .outbytes_o = 2,
      .shift_o = 2,
      .raw_o = 0,
      .fWidth = 32,
      .fHeight = 48,
      .kernelWidth = 3,
      .kernelHeight = 3,
      .nKernels = 8,
      .batchDepth = 8,
      .hstride = 1,
      .vstride = 1,
      .left_padding = 1,
      .right_padding = 1,
      .top_padding = 1,
      .bot_padding = 1,
      .left_crop = 0,
      .right_crop = 31,
      .top_crop = 0,
      .bot_crop = 47,
    };

    /* Unit=CONV_ACC_V2 */
    LL_Convacc_Init(1, &Conv2D_13_init4);


    /* Unit= 18 [ARITH_ACC_V2 0] */
    /* kind=Mul node=Conv2D_13_mul_scale_18 */
    static const LL_Arithacc_InitTypeDef Conv2D_13_mul_scale_18_init4 = {
      .rounding_x = 0,
      .saturation_x = 0,
      .round_mode_x = 0,
      .inbytes_x = 2,
      .outbytes_x = 2,
      .shift_x = 0,
      .rounding_y = 0,
      .saturation_y = 0,
      .round_mode_y = 0,
      .inbytes_y = 2,
      .outbytes_y = 2,
      .combinebc = 0,
      .clipout = 0,
      .shift_y = 0,
      .rounding_o = 1,
      .saturation_o = 1,
      .round_mode_o = 1,
      .relu_mode_o = 0,
      .outbytes_o = 2,
      .shift_o = 13,
      .scalar = 0,
      .dualinput = 0,
      .operation = ARITH_AFFINE,
      .bcast = ARITH_BCAST_CHAN,
      .Ax_shift = 0,
      .By_shift = 0,
      .C_shift = 0,
      .fWidth = 32,
      .fHeight = 48,
      .fChannels = 32,
      .batchDepth = 8,
      .clipmin = 0,
      .clipmax = 0,
      .A_scalar = 1,
      .B_scalar = 0,
      .C_scalar = 0,
      .A_vector = { (unsigned char *)(__blob_Conv2D_13_mul_scale_20) },
      .B_vector = {0},
      .C_vector = {0},
      .vec_precision = {16, 16, 16},
    };

    /* Unit=ARITH_ACC_V2 */
    LL_Arithacc_Init(0, &Conv2D_13_mul_scale_18_init4);


    /* Unit= 19 [ARITH_ACC_V2 1] */
    /* kind=Add node=Conv2D_13_off_bias_21 */
    static const LL_Arithacc_InitTypeDef Conv2D_13_off_bias_21_init4 = {
      .rounding_x = 0,
      .saturation_x = 0,
      .round_mode_x = 0,
      .inbytes_x = 2,
      .outbytes_x = 2,
      .shift_x = 0,
      .rounding_y = 0,
      .saturation_y = 0,
      .round_mode_y = 0,
      .inbytes_y = 2,
      .outbytes_y = 2,
      .combinebc = 1,
      .clipout = 0,
      .shift_y = 0,
      .rounding_o = 1,
      .saturation_o = 1,
      .round_mode_o = 1,
      .relu_mode_o = 0,
      .outbytes_o = 1,
      .shift_o = 20,
      .scalar = 0,
      .dualinput = 0,
      .operation = ARITH_AFFINE,
      .bcast = ARITH_BCAST_CHAN,
      .Ax_shift = 0,
      .By_shift = 0,
      .C_shift = 0,
      .fWidth = 32,
      .fHeight = 48,
      .fChannels = 32,
      .batchDepth = 8,
      .clipmin = 0,
      .clipmax = 0,
      .A_scalar = 27699,
      .B_scalar = 0,
      .C_scalar = (short)0,
      .A_vector = {0},
      .B_vector = {0},
      .C_vector = { (unsigned char *)(__blob_Conv2D_13_off_bias_23) },
      .vec_precision = {16, 16, 32},
    };

    /* Unit=ARITH_ACC_V2 */
    LL_Arithacc_Init(1, &Conv2D_13_off_bias_21_init4);


    /* Unit= 17 [ACTIV_ACC_V2 1] */
    /* kind=Relu node=Relu_16 */
    static const LL_Activacc_InitTypeDef Relu_16_init4 = {
      .rounding_f = 0,
      .saturation_f = 0,
      .round_mode_f = 0,
      .inbytes_f = 1,
      .outbytes_f = 1,
      .rounding_o = 1,
      .saturation_o = 1,
      .round_mode_o = 1,
      .relu_mode_o = 0,
      .outbytes_o = 1,
      .signedop = 1,
      .shift_f = 0,
      .shift_o = 0,
      .parameter = 65408,
      .parameter_2 = 65408,
      .fsub = 0,
      .operation = ACTIV_TRELU,
    };

    /* Unit=ACTIV_ACC_V2 */
    LL_Activacc_Init(1, &Relu_16_init4);


    /* Unit= 20 [ARITH_ACC_V2 2] */
    /* kind=Sub node=Conv2D_17_suboff_24 */
    static const LL_Arithacc_InitTypeDef Conv2D_17_suboff_24_init4 = {
      .rounding_x = 0,
      .saturation_x = 0,
      .round_mode_x = 0,
      .inbytes_x = 1,
      .outbytes_x = 1,
      .shift_x = 0,
      .rounding_y = 0,
      .saturation_y = 0,
      .round_mode_y = 0,
      .inbytes_y = 1,
      .outbytes_y = 1,
      .combinebc = 1,
      .clipout = 0,
      .shift_y = 0,
      .rounding_o = 0,
      .saturation_o = 0,
      .round_mode_o = 1,
      .relu_mode_o = 0,
      .outbytes_o = 1,
      .shift_o = 14,
      .scalar = 1,
      .dualinput = 0,
      .operation = ARITH_AFFINE,
      .bcast = ARITH_BCAST_SCALAR,
      .Ax_shift = 0,
      .By_shift = 0,
      .C_shift = 0,
      .fWidth = 32,
      .fHeight = 48,
      .fChannels = 32,
      .batchDepth = 8,
      .clipmin = 0,
      .clipmax = 0,
      .A_scalar = 16384,
      .B_scalar = 32,
      .C_scalar = (short)0,
      .A_vector = {0},
      .B_vector = {0},
      .C_vector = {0},
      .vec_precision = {8, 8, 8},
    };

    /* Unit=ARITH_ACC_V2 */
    LL_Arithacc_Init(2, &Conv2D_17_suboff_24_init4);


    /* Dma inputs units to cycle: */
    /* Unit= 8 [STREAM_ENG_V2 8] */
    /* Emit conf for STREAM_ENG_V2 node=Conv2D_13 input ports=0 range=1[0,49152] */

    static const LL_Streng_TensorInitTypeDef Conv2D_13_dma_init_in_0_4 = {
      .dir = 0,
      .noblk = 0,
      .align_right = 0,
      .nbits_unsigned = 1,
      .addr_base = {(unsigned char *)(0x342e0000UL) /* Equivalent hex address = 0x342e0000UL */}, /* Conv2D_13_zero_off_out_16 */
      .offset_start = 0,
      .offset_limit = 49216,
      .frame_count = 0,
      .fwidth = 32,
      .fheight = 48,
      .batch_depth = 8,
      .batch_offset = 32,
      .frame_offset = 0,
      .line_offset = 0,
      .loop_offset = 8,
      .frame_loop_cnt = 1,
      .frame_tot_cnt = 4,
      .nbits_in = 8,
      .nbits_out = 8,
    };

    /* Unit=STREAM_ENG_V2 */
    LL_Streng_TensorInit(8, &Conv2D_13_dma_init_in_0_4, 1);

    /* Unit= 4 [STREAM_ENG_V2 4] */
    /* Emit conf for STREAM_ENG_V2 node=Conv2D_13 input ports=1 range=8[167008,169312] */

    static const LL_Streng_TensorInitTypeDef Conv2D_13_dma_init_in_1_4 = {
      /* 32x3x3x8(8 bits) */
      .dir = 0,
      .raw = 1,
      .continuous = 1,
      .noblk = 0,
      .align_right = 0,
      .nbits_unsigned = 0,
      .cacheable = 1,
      .cache_allocate = 0,
      .addr_base = {(unsigned char *)(0x70380000UL) /* Equivalent hex address = 0x70380000UL */}, /* Conv2D_13_weights_inflated_116 */
      .offset_start = 167008,
      .offset_end = 169312,
      .offset_limit = 169376,
      .frame_count = 0,
      .fwidth = 0,
      .fheight = 0,
      .batch_depth = 0,
      .batch_offset = 0,
      .frame_offset = 0,
      .line_offset = 0,
      .loop_offset = 0,
      .frame_loop_cnt = 0,
      .frame_tot_cnt = 1,
      .nbits_in = 8,
      .nbits_out = 8,
    };

    /* Unit=STREAM_ENG_V2 */
    LL_Streng_TensorInit(4, &Conv2D_13_dma_init_in_1_4, 1);


    /* Dma input bandwidth from memory pools: */
    /* npuRAM5 -> 49152 */
    /* octoFlash -> 2304 */

    /* Dma output units from cycle: */
    /* Unit= 1 [STREAM_ENG_V2 1] */
    /* Emit conf for STREAM_ENG_V2 node=Conv2D_17_suboff_24 output ports=0 range=1[98304,147456] */

    static const LL_Streng_TensorInitTypeDef Conv2D_17_suboff_24_dma_init_out_0_4 = {
      /* to memory canonical from batch=8 */
      .dir = 1,
      .noblk = 0,
      .align_right = 0,
      .nbits_unsigned = 1,
      .addr_base = {(unsigned char *)(0x342e0000UL) /* Equivalent hex address = 0x342e0000UL */}, /* Conv2D_17_zero_off_out_25 */
      .offset_start = 98304,
      .offset_limit = 147520,
      .frame_count = 0,
      .fwidth = 32,
      .fheight = 48,
      .batch_depth = 8,
      .batch_offset = 32,
      .frame_offset = 8,
      .line_offset = 0,
      .loop_offset = 49152,
      .frame_loop_cnt = 4,
      .frame_tot_cnt = 4,
      .nbits_in = 8,
      .nbits_out = 8,
    };

    /* Unit=STREAM_ENG_V2 */
    LL_Streng_TensorInit(1, &Conv2D_17_suboff_24_dma_init_out_0_4, 1);


    /* Dma output bandwidth to memory pools: */
    /* npuRAM5 <- 49152 */

    static const LL_Switch_InitTypeDef switch_init_in_4[] = {
      { LL_Switch_Init_Dest() = ATONN_DSTPORT(STRSWITCH, 0, CONVACC, 1, 0), LL_Switch_Init_Source(0) = ATONN_SRCPORT(STRSWITCH, 0, STRENG, 8, 0), LL_Switch_Init_Context(0) = 1, LL_Switch_Init_Frames(0) = 0, }, /* Conv2D_13 IN: in unit=CONV_ACC_V2 1 in port=0 out unit=STREAM_ENG_V2 8 out port=0 */
      { LL_Switch_Init_Dest() = ATONN_DSTPORT(STRSWITCH, 0, CONVACC, 1, 1), LL_Switch_Init_Source(0) = ATONN_SRCPORT(STRSWITCH, 0, STRENG, 4, 0), LL_Switch_Init_Context(0) = 1, LL_Switch_Init_Frames(0) = 0, }, /* Conv2D_13 IN: in unit=CONV_ACC_V2 1 in port=1 out unit=STREAM_ENG_V2 4 out port=0 */
      { LL_Switch_Init_Dest() = ATONN_DSTPORT(STRSWITCH, 0, ARITH, 0, 0), LL_Switch_Init_Source(0) = ATONN_SRCPORT(STRSWITCH, 0, CONVACC, 1, 0), LL_Switch_Init_Context(0) = 1, LL_Switch_Init_Frames(0) = 0, }, /* Conv2D_13_mul_scale_18 IN: in unit=ARITH_ACC_V2 0 in port=0 out unit=CONV_ACC_V2 1 out port=0 */
      { LL_Switch_Init_Dest() = ATONN_DSTPORT(STRSWITCH, 0, ARITH, 1, 0), LL_Switch_Init_Source(0) = ATONN_SRCPORT(STRSWITCH, 0, ARITH, 0, 0), LL_Switch_Init_Context(0) = 1, LL_Switch_Init_Frames(0) = 0, }, /* Conv2D_13_off_bias_21 IN: in unit=ARITH_ACC_V2 1 in port=0 out unit=ARITH_ACC_V2 0 out port=0 */
      { LL_Switch_Init_Dest() = ATONN_DSTPORT(STRSWITCH, 0, ACTIV, 1, 0), LL_Switch_Init_Source(0) = ATONN_SRCPORT(STRSWITCH, 0, ARITH, 1, 0), LL_Switch_Init_Context(0) = 1, LL_Switch_Init_Frames(0) = 0, }, /* Relu_16 IN: in unit=ACTIV_ACC_V2 1 in port=0 out unit=ARITH_ACC_V2 1 out port=0 */
      { LL_Switch_Init_Dest() = ATONN_DSTPORT(STRSWITCH, 0, ARITH, 2, 0), LL_Switch_Init_Source(0) = ATONN_SRCPORT(STRSWITCH, 0, ACTIV, 1, 0), LL_Switch_Init_Context(0) = 1, LL_Switch_Init_Frames(0) = 0, }, /* Conv2D_17_suboff_24 IN: in unit=ARITH_ACC_V2 2 in port=0 out unit=ACTIV_ACC_V2 1 out port=0 */
      { LL_Switch_Init_Dest() = ATONN_DSTPORT(STRSWITCH, 0, STRENG, 1, 0), LL_Switch_Init_Source(0) = ATONN_SRCPORT(STRSWITCH, 0, ARITH, 2, 0), LL_Switch_Init_Context(0) = 1, LL_Switch_Init_Frames(0) = 0, }, /* Conv2D_17_suboff_24 OUT: in unit=STREAM_ENG_V2 1 in port=0 out unit=ARITH_ACC_V2 2 out port=0 */
    };


    /* epoch=4 */
    LL_Switch_Init(switch_init_in_4, 7);

    static LL_ATON_EnableUnits_InitTypeDef Enable_epoch_4_all_units[] = {
      { {STRENG, 1} }, /* STREAM_ENG_V2 */
      { {CONVACC, 1} }, /* CONV_ACC_V2 */
      { {ACTIV, 1} }, /* ACTIV_ACC_V2 */
      { {ARITH, 0} }, /* ARITH_ACC_V2 */
      { {ARITH, 1} }, /* ARITH_ACC_V2 */
      { {ARITH, 2} }, /* ARITH_ACC_V2 */
      { {STRENG, 4} }, /* STREAM_ENG_V2 */
      { {STRENG, 8} }, /* STREAM_ENG_V2 */
    };


    LL_ATON_EnableUnits_Init(Enable_epoch_4_all_units, 8);

  }

  ec_trace_wait_epoch_end(0x2);

  {
    static const LL_Switch_DeinitTypeDef switch_deinit_in_4[] = {
      { LL_Switch_Init_Dest() = ATONN_DSTPORT(STRSWITCH, 0, CONVACC, 1, 0), LL_Switch_Init_Source(0) = ATONN_SRCPORT(STRSWITCH, 0, STRENG, 8, 0), LL_Switch_Init_Context(0) = 1, LL_Switch_Init_Frames(0) = 0, }, /* Conv2D_13 IN: in unit=CONV_ACC_V2 1 in port=0 out unit=STREAM_ENG_V2 8 out port=0 */
      { LL_Switch_Init_Dest() = ATONN_DSTPORT(STRSWITCH, 0, CONVACC, 1, 1), LL_Switch_Init_Source(0) = ATONN_SRCPORT(STRSWITCH, 0, STRENG, 4, 0), LL_Switch_Init_Context(0) = 1, LL_Switch_Init_Frames(0) = 0, }, /* Conv2D_13 IN: in unit=CONV_ACC_V2 1 in port=1 out unit=STREAM_ENG_V2 4 out port=0 */
      { LL_Switch_Init_Dest() = ATONN_DSTPORT(STRSWITCH, 0, ARITH, 0, 0), LL_Switch_Init_Source(0) = ATONN_SRCPORT(STRSWITCH, 0, CONVACC, 1, 0), LL_Switch_Init_Context(0) = 1, LL_Switch_Init_Frames(0) = 0, }, /* Conv2D_13_mul_scale_18 IN: in unit=ARITH_ACC_V2 0 in port=0 out unit=CONV_ACC_V2 1 out port=0 */
      { LL_Switch_Init_Dest() = ATONN_DSTPORT(STRSWITCH, 0, ARITH, 1, 0), LL_Switch_Init_Source(0) = ATONN_SRCPORT(STRSWITCH, 0, ARITH, 0, 0), LL_Switch_Init_Context(0) = 1, LL_Switch_Init_Frames(0) = 0, }, /* Conv2D_13_off_bias_21 IN: in unit=ARITH_ACC_V2 1 in port=0 out unit=ARITH_ACC_V2 0 out port=0 */
      { LL_Switch_Init_Dest() = ATONN_DSTPORT(STRSWITCH, 0, ACTIV, 1, 0), LL_Switch_Init_Source(0) = ATONN_SRCPORT(STRSWITCH, 0, ARITH, 1, 0), LL_Switch_Init_Context(0) = 1, LL_Switch_Init_Frames(0) = 0, }, /* Relu_16 IN: in unit=ACTIV_ACC_V2 1 in port=0 out unit=ARITH_ACC_V2 1 out port=0 */
      { LL_Switch_Init_Dest() = ATONN_DSTPORT(STRSWITCH, 0, ARITH, 2, 0), LL_Switch_Init_Source(0) = ATONN_SRCPORT(STRSWITCH, 0, ACTIV, 1, 0), LL_Switch_Init_Context(0) = 1, LL_Switch_Init_Frames(0) = 0, }, /* Conv2D_17_suboff_24 IN: in unit=ARITH_ACC_V2 2 in port=0 out unit=ACTIV_ACC_V2 1 out port=0 */
      { LL_Switch_Init_Dest() = ATONN_DSTPORT(STRSWITCH, 0, STRENG, 1, 0), LL_Switch_Init_Source(0) = ATONN_SRCPORT(STRSWITCH, 0, ARITH, 2, 0), LL_Switch_Init_Context(0) = 1, LL_Switch_Init_Frames(0) = 0, }, /* Conv2D_17_suboff_24 OUT: in unit=STREAM_ENG_V2 1 in port=0 out unit=ARITH_ACC_V2 2 out port=0 */
    };


    /* epoch=4 */
    LL_Switch_Deinit(switch_deinit_in_4, 7);

    static LL_ATON_DisableUnits_InitTypeDef Disable_epoch_4_all_units[] = {
      { {STRENG, 1} }, /* STREAM_ENG_V2 */
      { {CONVACC, 1} }, /* CONV_ACC_V2 */
      { {ACTIV, 1} }, /* ACTIV_ACC_V2 */
      { {ARITH, 0} }, /* ARITH_ACC_V2 */
      { {ARITH, 1} }, /* ARITH_ACC_V2 */
      { {ARITH, 2} }, /* ARITH_ACC_V2 */
      { {STRENG, 4} }, /* STREAM_ENG_V2 */
      { {STRENG, 8} }, /* STREAM_ENG_V2 */
    };


    LL_ATON_DisableUnits_Init(Disable_epoch_4_all_units, 8);

  }
  ec_trace_end_epoch(4);
  ec_trace_start_epoch(5);
  {
    /* Unit= 12 [CONV_ACC_V2 2] */
    /* kind=Conv node=Conv2D_17 */
    static const LL_Convacc_InitTypeDef Conv2D_17_init5 = {
      .simd = 1,
      .fsub = 0,
      .accumulate = 0,
      .rounding_f = 0,
      .saturation_f = 0,
      .round_mode_f = 0,
      .f_unsigned = 1,
      .k_unsigned = 0,
      .deepmode = 1,
      .dss2mode = 0,
      .kseten = 3,
      .zfbias = 0,
      .inbytes_f = 3,
      .shift_f = 0,
      .shift_a = 3,
      .rounding_o = 1,
      .saturation_o = 1,
      .round_mode_o = 1,
      .relu_mode_o = 0,
      .outbytes_o = 2,
      .shift_o = 3,
      .raw_o = 0,
      .fWidth = 32,
      .fHeight = 48,
      .kernelWidth = 1,
      .kernelHeight = 1,
      .nKernels = 16,
      .batchDepth = 32,
      .hstride = 1,
      .vstride = 1,
      .left_padding = 0,
      .right_padding = 0,
      .top_padding = 0,
      .bot_padding = 0,
      .left_crop = 0,
      .right_crop = 31,
      .top_crop = 0,
      .bot_crop = 47,
    };

    /* Unit=CONV_ACC_V2 */
    LL_Convacc_Init(2, &Conv2D_17_init5);


    /* Unit= 21 [ARITH_ACC_V2 3] */
    /* kind=Mul node=Conv2D_17_mul_scale_27 */
    static const LL_Arithacc_InitTypeDef Conv2D_17_mul_scale_27_init5 = {
      .rounding_x = 0,
      .saturation_x = 0,
      .round_mode_x = 0,
      .inbytes_x = 2,
      .outbytes_x = 2,
      .shift_x = 0,
      .rounding_y = 0,
      .saturation_y = 0,
      .round_mode_y = 0,
      .inbytes_y = 2,
      .outbytes_y = 2,
      .combinebc = 0,
      .clipout = 0,
      .shift_y = 0,
      .rounding_o = 1,
      .saturation_o = 1,
      .round_mode_o = 1,
      .relu_mode_o = 0,
      .outbytes_o = 2,
      .shift_o = 13,
      .scalar = 0,
      .dualinput = 0,
      .operation = ARITH_AFFINE,
      .bcast = ARITH_BCAST_CHAN,
      .Ax_shift = 0,
      .By_shift = 0,
      .C_shift = 0,
      .fWidth = 32,
      .fHeight = 48,
      .fChannels = 64,
      .batchDepth = 16,
      .clipmin = 0,
      .clipmax = 0,
      .A_scalar = 1,
      .B_scalar = 0,
      .C_scalar = 0,
      .A_vector = { (unsigned char *)(__blob_Conv2D_17_mul_scale_29) },
      .B_vector = {0},
      .C_vector = {0},
      .vec_precision = {16, 16, 16},
    };

    /* Unit=ARITH_ACC_V2 */
    LL_Arithacc_Init(3, &Conv2D_17_mul_scale_27_init5);


    /* Unit= 18 [ARITH_ACC_V2 0] */
    /* kind=Add node=Conv2D_17_off_bias_30 */
    static const LL_Arithacc_InitTypeDef Conv2D_17_off_bias_30_init5 = {
      .rounding_x = 0,
      .saturation_x = 0,
      .round_mode_x = 0,
      .inbytes_x = 2,
      .outbytes_x = 2,
      .shift_x = 0,
      .rounding_y = 0,
      .saturation_y = 0,
      .round_mode_y = 0,
      .inbytes_y = 2,
      .outbytes_y = 2,
      .combinebc = 1,
      .clipout = 0,
      .shift_y = 0,
      .rounding_o = 1,
      .saturation_o = 1,
      .round_mode_o = 1,
      .relu_mode_o = 0,
      .outbytes_o = 1,
      .shift_o = 20,
      .scalar = 0,
      .dualinput = 0,
      .operation = ARITH_AFFINE,
      .bcast = ARITH_BCAST_CHAN,
      .Ax_shift = 0,
      .By_shift = 0,
      .C_shift = 0,
      .fWidth = 32,
      .fHeight = 48,
      .fChannels = 64,
      .batchDepth = 16,
      .clipmin = 0,
      .clipmax = 0,
      .A_scalar = 31152,
      .B_scalar = 0,
      .C_scalar = (short)0,
      .A_vector = {0},
      .B_vector = {0},
      .C_vector = { (unsigned char *)(__blob_Conv2D_17_off_bias_32) },
      .vec_precision = {16, 16, 32},
    };

    /* Unit=ARITH_ACC_V2 */
    LL_Arithacc_Init(0, &Conv2D_17_off_bias_30_init5);


    /* Unit= 16 [ACTIV_ACC_V2 0] */
    /* kind=Relu node=Relu_20 */
    static const LL_Activacc_InitTypeDef Relu_20_init5 = {
      .rounding_f = 0,
      .saturation_f = 0,
      .round_mode_f = 0,
      .inbytes_f = 1,
      .outbytes_f = 1,
      .rounding_o = 1,
      .saturation_o = 1,
      .round_mode_o = 1,
      .relu_mode_o = 0,
      .outbytes_o = 1,
      .signedop = 1,
      .shift_f = 0,
      .shift_o = 0,
      .parameter = 65408,
      .parameter_2 = 65408,
      .fsub = 0,
      .operation = ACTIV_TRELU,
    };

    /* Unit=ACTIV_ACC_V2 */
    LL_Activacc_Init(0, &Relu_20_init5);


    /* Unit= 19 [ARITH_ACC_V2 1] */
    /* kind=Sub node=Conv2D_22_suboff_33 */
    static const LL_Arithacc_InitTypeDef Conv2D_22_suboff_33_init5 = {
      .rounding_x = 0,
      .saturation_x = 0,
      .round_mode_x = 0,
      .inbytes_x = 1,
      .outbytes_x = 1,
      .shift_x = 0,
      .rounding_y = 0,
      .saturation_y = 0,
      .round_mode_y = 0,
      .inbytes_y = 1,
      .outbytes_y = 1,
      .combinebc = 1,
      .clipout = 0,
      .shift_y = 0,
      .rounding_o = 0,
      .saturation_o = 0,
      .round_mode_o = 1,
      .relu_mode_o = 0,
      .outbytes_o = 1,
      .shift_o = 14,
      .scalar = 1,
      .dualinput = 0,
      .operation = ARITH_AFFINE,
      .bcast = ARITH_BCAST_SCALAR,
      .Ax_shift = 0,
      .By_shift = 0,
      .C_shift = 0,
      .fWidth = 32,
      .fHeight = 48,
      .fChannels = 64,
      .batchDepth = 16,
      .clipmin = 0,
      .clipmax = 0,
      .A_scalar = 16384,
      .B_scalar = 32,
      .C_scalar = (short)0,
      .A_vector = {0},
      .B_vector = {0},
      .C_vector = {0},
      .vec_precision = {8, 8, 8},
    };

    /* Unit=ARITH_ACC_V2 */
    LL_Arithacc_Init(1, &Conv2D_22_suboff_33_init5);


    /* Dma inputs units to cycle: */
    /* Unit= 8 [STREAM_ENG_V2 8] */
    /* Emit conf for STREAM_ENG_V2 node=Conv2D_17 input ports=0 range=1[98304,147456] */

    static const LL_Streng_TensorInitTypeDef Conv2D_17_dma_init_in_0_5 = {
      /* 32x48x32(8 bits) */
      .dir = 0,
      .raw = 1,
      .raw_out = 1,
      .noblk = 0,
      .align_right = 0,
      .nbits_unsigned = 1,
      .addr_base = {(unsigned char *)(0x342e0000UL) /* Equivalent hex address = 0x342e0000UL */}, /* Conv2D_17_zero_off_out_25 */
      .offset_start = 98304,
      .offset_end = 147456,
      .offset_limit = 147520,
      .frame_count = 0,
      .fwidth = 0,
      .fheight = 0,
      .batch_depth = 0,
      .batch_offset = 0,
      .frame_offset = 0,
      .line_offset = 0,
      .loop_offset = 49152,
      .frame_loop_cnt = 4,
      .frame_tot_cnt = 4,
      .nbits_in = 24,
      .nbits_out = 24,
    };

    /* Unit=STREAM_ENG_V2 */
    LL_Streng_TensorInit(8, &Conv2D_17_dma_init_in_0_5, 1);

    /* Unit= 4 [STREAM_ENG_V2 4] */
    /* Emit conf for STREAM_ENG_V2 node=Conv2D_17 input ports=1 range=8[169312,171364] */

    static const LL_Streng_TensorInitTypeDef Conv2D_17_dma_init_in_1_5 = {
      /* 64x1x1x32(8 bits) */
      .dir = 0,
      .raw = 1,
      .continuous = 1,
      .noblk = 0,
      .align_right = 0,
      .nbits_unsigned = 0,
      .cacheable = 1,
      .cache_allocate = 0,
      .addr_base = {(unsigned char *)(0x70380000UL) /* Equivalent hex address = 0x70380000UL */}, /* Conv2D_17_weights */
      .offset_start = 169312,
      .offset_end = 171364,
      .offset_limit = 171432,
      .frame_count = 0,
      .fwidth = 0,
      .fheight = 0,
      .batch_depth = 0,
      .batch_offset = 0,
      .frame_offset = 0,
      .line_offset = 0,
      .loop_offset = 0,
      .frame_loop_cnt = 0,
      .frame_tot_cnt = 1,
      .nbits_in = 24,
      .nbits_out = 24,
    };

    /* Unit=STREAM_ENG_V2 */
    LL_Streng_TensorInit(4, &Conv2D_17_dma_init_in_1_5, 1);


    /* Dma input bandwidth from memory pools: */
    /* npuRAM5 -> 196608 */
    /* octoFlash -> 2048 */

    /* Dma output units from cycle: */
    /* Unit= 1 [STREAM_ENG_V2 1] */
    /* Emit conf for STREAM_ENG_V2 node=Conv2D_22_suboff_33 output ports=0 range=1[0,98304] */

    static const LL_Streng_TensorInitTypeDef Conv2D_22_suboff_33_dma_init_out_0_5 = {
      /* to memory canonical from batch=16 */
      .dir = 1,
      .noblk = 0,
      .align_right = 0,
      .nbits_unsigned = 1,
      .addr_base = {(unsigned char *)(0x342e0000UL) /* Equivalent hex address = 0x342e0000UL */}, /* Conv2D_22_zero_off_out_34 */
      .offset_start = 0,
      .offset_limit = 98368,
      .frame_count = 0,
      .fwidth = 32,
      .fheight = 48,
      .batch_depth = 16,
      .batch_offset = 64,
      .frame_offset = 16,
      .line_offset = 0,
      .loop_offset = 98304,
      .frame_loop_cnt = 4,
      .frame_tot_cnt = 4,
      .nbits_in = 8,
      .nbits_out = 8,
    };

    /* Unit=STREAM_ENG_V2 */
    LL_Streng_TensorInit(1, &Conv2D_22_suboff_33_dma_init_out_0_5, 1);


    /* Dma output bandwidth to memory pools: */
    /* npuRAM5 <- 98304 */

    static const LL_Switch_InitTypeDef switch_init_in_5[] = {
      { LL_Switch_Init_Dest() = ATONN_DSTPORT(STRSWITCH, 0, CONVACC, 2, 0), LL_Switch_Init_Source(0) = ATONN_SRCPORT(STRSWITCH, 0, STRENG, 8, 0), LL_Switch_Init_Context(0) = 1, LL_Switch_Init_Frames(0) = 0, }, /* Conv2D_17 IN: in unit=CONV_ACC_V2 2 in port=0 out unit=STREAM_ENG_V2 8 out port=0 */
      { LL_Switch_Init_Dest() = ATONN_DSTPORT(STRSWITCH, 0, CONVACC, 2, 1), LL_Switch_Init_Source(0) = ATONN_SRCPORT(STRSWITCH, 0, STRENG, 4, 0), LL_Switch_Init_Context(0) = 1, LL_Switch_Init_Frames(0) = 0, }, /* Conv2D_17 IN: in unit=CONV_ACC_V2 2 in port=1 out unit=STREAM_ENG_V2 4 out port=0 */
      { LL_Switch_Init_Dest() = ATONN_DSTPORT(STRSWITCH, 0, ARITH, 3, 0), LL_Switch_Init_Source(0) = ATONN_SRCPORT(STRSWITCH, 0, CONVACC, 2, 0), LL_Switch_Init_Context(0) = 1, LL_Switch_Init_Frames(0) = 0, }, /* Conv2D_17_mul_scale_27 IN: in unit=ARITH_ACC_V2 3 in port=0 out unit=CONV_ACC_V2 2 out port=0 */
      { LL_Switch_Init_Dest() = ATONN_DSTPORT(STRSWITCH, 0, ARITH, 0, 0), LL_Switch_Init_Source(0) = ATONN_SRCPORT(STRSWITCH, 0, ARITH, 3, 0), LL_Switch_Init_Context(0) = 1, LL_Switch_Init_Frames(0) = 0, }, /* Conv2D_17_off_bias_30 IN: in unit=ARITH_ACC_V2 0 in port=0 out unit=ARITH_ACC_V2 3 out port=0 */
      { LL_Switch_Init_Dest() = ATONN_DSTPORT(STRSWITCH, 0, ACTIV, 0, 0), LL_Switch_Init_Source(0) = ATONN_SRCPORT(STRSWITCH, 0, ARITH, 0, 0), LL_Switch_Init_Context(0) = 1, LL_Switch_Init_Frames(0) = 0, }, /* Relu_20 IN: in unit=ACTIV_ACC_V2 0 in port=0 out unit=ARITH_ACC_V2 0 out port=0 */
      { LL_Switch_Init_Dest() = ATONN_DSTPORT(STRSWITCH, 0, ARITH, 1, 0), LL_Switch_Init_Source(0) = ATONN_SRCPORT(STRSWITCH, 0, ACTIV, 0, 0), LL_Switch_Init_Context(0) = 1, LL_Switch_Init_Frames(0) = 0, }, /* Conv2D_22_suboff_33 IN: in unit=ARITH_ACC_V2 1 in port=0 out unit=ACTIV_ACC_V2 0 out port=0 */
      { LL_Switch_Init_Dest() = ATONN_DSTPORT(STRSWITCH, 0, STRENG, 1, 0), LL_Switch_Init_Source(0) = ATONN_SRCPORT(STRSWITCH, 0, ARITH, 1, 0), LL_Switch_Init_Context(0) = 1, LL_Switch_Init_Frames(0) = 0, }, /* Conv2D_22_suboff_33 OUT: in unit=STREAM_ENG_V2 1 in port=0 out unit=ARITH_ACC_V2 1 out port=0 */
    };


    /* epoch=5 */
    LL_Switch_Init(switch_init_in_5, 7);

    static LL_ATON_EnableUnits_InitTypeDef Enable_epoch_5_all_units[] = {
      { {STRENG, 1} }, /* STREAM_ENG_V2 */
      { {CONVACC, 2} }, /* CONV_ACC_V2 */
      { {ACTIV, 0} }, /* ACTIV_ACC_V2 */
      { {ARITH, 0} }, /* ARITH_ACC_V2 */
      { {ARITH, 1} }, /* ARITH_ACC_V2 */
      { {ARITH, 3} }, /* ARITH_ACC_V2 */
      { {STRENG, 4} }, /* STREAM_ENG_V2 */
      { {STRENG, 8} }, /* STREAM_ENG_V2 */
    };


    LL_ATON_EnableUnits_Init(Enable_epoch_5_all_units, 8);

  }

  ec_trace_wait_epoch_end(0x2);

  {
    static const LL_Switch_DeinitTypeDef switch_deinit_in_5[] = {
      { LL_Switch_Init_Dest() = ATONN_DSTPORT(STRSWITCH, 0, CONVACC, 2, 0), LL_Switch_Init_Source(0) = ATONN_SRCPORT(STRSWITCH, 0, STRENG, 8, 0), LL_Switch_Init_Context(0) = 1, LL_Switch_Init_Frames(0) = 0, }, /* Conv2D_17 IN: in unit=CONV_ACC_V2 2 in port=0 out unit=STREAM_ENG_V2 8 out port=0 */
      { LL_Switch_Init_Dest() = ATONN_DSTPORT(STRSWITCH, 0, CONVACC, 2, 1), LL_Switch_Init_Source(0) = ATONN_SRCPORT(STRSWITCH, 0, STRENG, 4, 0), LL_Switch_Init_Context(0) = 1, LL_Switch_Init_Frames(0) = 0, }, /* Conv2D_17 IN: in unit=CONV_ACC_V2 2 in port=1 out unit=STREAM_ENG_V2 4 out port=0 */
      { LL_Switch_Init_Dest() = ATONN_DSTPORT(STRSWITCH, 0, ARITH, 3, 0), LL_Switch_Init_Source(0) = ATONN_SRCPORT(STRSWITCH, 0, CONVACC, 2, 0), LL_Switch_Init_Context(0) = 1, LL_Switch_Init_Frames(0) = 0, }, /* Conv2D_17_mul_scale_27 IN: in unit=ARITH_ACC_V2 3 in port=0 out unit=CONV_ACC_V2 2 out port=0 */
      { LL_Switch_Init_Dest() = ATONN_DSTPORT(STRSWITCH, 0, ARITH, 0, 0), LL_Switch_Init_Source(0) = ATONN_SRCPORT(STRSWITCH, 0, ARITH, 3, 0), LL_Switch_Init_Context(0) = 1, LL_Switch_Init_Frames(0) = 0, }, /* Conv2D_17_off_bias_30 IN: in unit=ARITH_ACC_V2 0 in port=0 out unit=ARITH_ACC_V2 3 out port=0 */
      { LL_Switch_Init_Dest() = ATONN_DSTPORT(STRSWITCH, 0, ACTIV, 0, 0), LL_Switch_Init_Source(0) = ATONN_SRCPORT(STRSWITCH, 0, ARITH, 0, 0), LL_Switch_Init_Context(0) = 1, LL_Switch_Init_Frames(0) = 0, }, /* Relu_20 IN: in unit=ACTIV_ACC_V2 0 in port=0 out unit=ARITH_ACC_V2 0 out port=0 */
      { LL_Switch_Init_Dest() = ATONN_DSTPORT(STRSWITCH, 0, ARITH, 1, 0), LL_Switch_Init_Source(0) = ATONN_SRCPORT(STRSWITCH, 0, ACTIV, 0, 0), LL_Switch_Init_Context(0) = 1, LL_Switch_Init_Frames(0) = 0, }, /* Conv2D_22_suboff_33 IN: in unit=ARITH_ACC_V2 1 in port=0 out unit=ACTIV_ACC_V2 0 out port=0 */
      { LL_Switch_Init_Dest() = ATONN_DSTPORT(STRSWITCH, 0, STRENG, 1, 0), LL_Switch_Init_Source(0) = ATONN_SRCPORT(STRSWITCH, 0, ARITH, 1, 0), LL_Switch_Init_Context(0) = 1, LL_Switch_Init_Frames(0) = 0, }, /* Conv2D_22_suboff_33 OUT: in unit=STREAM_ENG_V2 1 in port=0 out unit=ARITH_ACC_V2 1 out port=0 */
    };


    /* epoch=5 */
    LL_Switch_Deinit(switch_deinit_in_5, 7);

    static LL_ATON_DisableUnits_InitTypeDef Disable_epoch_5_all_units[] = {
      { {STRENG, 1} }, /* STREAM_ENG_V2 */
      { {CONVACC, 2} }, /* CONV_ACC_V2 */
      { {ACTIV, 0} }, /* ACTIV_ACC_V2 */
      { {ARITH, 0} }, /* ARITH_ACC_V2 */
      { {ARITH, 1} }, /* ARITH_ACC_V2 */
      { {ARITH, 3} }, /* ARITH_ACC_V2 */
      { {STRENG, 4} }, /* STREAM_ENG_V2 */
      { {STRENG, 8} }, /* STREAM_ENG_V2 */
    };


    LL_ATON_DisableUnits_Init(Disable_epoch_5_all_units, 8);

  }
  ec_trace_end_epoch(5);
  ec_trace_start_epoch(6);
  {
    /* Unit= 13 [CONV_ACC_V2 3] */
    /* kind=Conv node=Conv2D_22 */
    static const LL_Convacc_InitTypeDef Conv2D_22_init6 = {
      .simd = 1,
      .fsub = 0,
      .accumulate = 0,
      .rounding_f = 0,
      .saturation_f = 0,
      .round_mode_f = 0,
      .f_unsigned = 1,
      .k_unsigned = 0,
      .deepmode = 0,
      .dss2mode = 0,
      .kseten = 0,
      .zfbias = 0,
      .inbytes_f = 1,
      .shift_f = 0,
      .shift_a = 3,
      .rounding_o = 1,
      .saturation_o = 1,
      .round_mode_o = 1,
      .relu_mode_o = 0,
      .outbytes_o = 2,
      .shift_o = 3,
      .raw_o = 0,
      .fWidth = 32,
      .fHeight = 48,
      .kernelWidth = 3,
      .kernelHeight = 3,
      .nKernels = 8,
      .batchDepth = 8,
      .hstride = 2,
      .vstride = 2,
      .left_padding = 0,
      .right_padding = 1,
      .top_padding = 0,
      .bot_padding = 1,
      .left_crop = 0,
      .right_crop = 31,
      .top_crop = 0,
      .bot_crop = 47,
    };

    /* Unit=CONV_ACC_V2 */
    LL_Convacc_Init(3, &Conv2D_22_init6);


    /* Unit= 20 [ARITH_ACC_V2 2] */
    /* kind=Mul node=Conv2D_22_mul_scale_36 */
    static const LL_Arithacc_InitTypeDef Conv2D_22_mul_scale_36_init6 = {
      .rounding_x = 0,
      .saturation_x = 0,
      .round_mode_x = 0,
      .inbytes_x = 2,
      .outbytes_x = 2,
      .shift_x = 0,
      .rounding_y = 0,
      .saturation_y = 0,
      .round_mode_y = 0,
      .inbytes_y = 2,
      .outbytes_y = 2,
      .combinebc = 0,
      .clipout = 0,
      .shift_y = 0,
      .rounding_o = 1,
      .saturation_o = 1,
      .round_mode_o = 1,
      .relu_mode_o = 0,
      .outbytes_o = 2,
      .shift_o = 12,
      .scalar = 0,
      .dualinput = 0,
      .operation = ARITH_AFFINE,
      .bcast = ARITH_BCAST_CHAN,
      .Ax_shift = 0,
      .By_shift = 0,
      .C_shift = 0,
      .fWidth = 16,
      .fHeight = 24,
      .fChannels = 64,
      .batchDepth = 8,
      .clipmin = 0,
      .clipmax = 0,
      .A_scalar = 1,
      .B_scalar = 0,
      .C_scalar = 0,
      .A_vector = { (unsigned char *)(__blob_Conv2D_22_mul_scale_38) },
      .B_vector = {0},
      .C_vector = {0},
      .vec_precision = {16, 16, 16},
    };

    /* Unit=ARITH_ACC_V2 */
    LL_Arithacc_Init(2, &Conv2D_22_mul_scale_36_init6);


    /* Unit= 18 [ARITH_ACC_V2 0] */
    /* kind=Add node=Conv2D_22_off_bias_39 */
    static const LL_Arithacc_InitTypeDef Conv2D_22_off_bias_39_init6 = {
      .rounding_x = 0,
      .saturation_x = 0,
      .round_mode_x = 0,
      .inbytes_x = 2,
      .outbytes_x = 2,
      .shift_x = 0,
      .rounding_y = 0,
      .saturation_y = 0,
      .round_mode_y = 0,
      .inbytes_y = 2,
      .outbytes_y = 2,
      .combinebc = 1,
      .clipout = 0,
      .shift_y = 0,
      .rounding_o = 1,
      .saturation_o = 1,
      .round_mode_o = 1,
      .relu_mode_o = 0,
      .outbytes_o = 1,
      .shift_o = 20,
      .scalar = 0,
      .dualinput = 0,
      .operation = ARITH_AFFINE,
      .bcast = ARITH_BCAST_CHAN,
      .Ax_shift = 0,
      .By_shift = 0,
      .C_shift = 0,
      .fWidth = 16,
      .fHeight = 24,
      .fChannels = 64,
      .batchDepth = 8,
      .clipmin = 0,
      .clipmax = 0,
      .A_scalar = 16714,
      .B_scalar = 0,
      .C_scalar = (short)0,
      .A_vector = {0},
      .B_vector = {0},
      .C_vector = { (unsigned char *)(__blob_Conv2D_22_off_bias_41) },
      .vec_precision = {16, 16, 32},
    };

    /* Unit=ARITH_ACC_V2 */
    LL_Arithacc_Init(0, &Conv2D_22_off_bias_39_init6);


    /* Unit= 17 [ACTIV_ACC_V2 1] */
    /* kind=Relu node=Relu_25 */
    static const LL_Activacc_InitTypeDef Relu_25_init6 = {
      .rounding_f = 0,
      .saturation_f = 0,
      .round_mode_f = 0,
      .inbytes_f = 1,
      .outbytes_f = 1,
      .rounding_o = 1,
      .saturation_o = 1,
      .round_mode_o = 1,
      .relu_mode_o = 0,
      .outbytes_o = 1,
      .signedop = 1,
      .shift_f = 0,
      .shift_o = 0,
      .parameter = 65408,
      .parameter_2 = 65408,
      .fsub = 0,
      .operation = ACTIV_TRELU,
    };

    /* Unit=ACTIV_ACC_V2 */
    LL_Activacc_Init(1, &Relu_25_init6);


    /* Unit= 19 [ARITH_ACC_V2 1] */
    /* kind=Sub node=Conv2D_26_suboff_42 */
    static const LL_Arithacc_InitTypeDef Conv2D_26_suboff_42_init6 = {
      .rounding_x = 0,
      .saturation_x = 0,
      .round_mode_x = 0,
      .inbytes_x = 1,
      .outbytes_x = 1,
      .shift_x = 0,
      .rounding_y = 0,
      .saturation_y = 0,
      .round_mode_y = 0,
      .inbytes_y = 1,
      .outbytes_y = 1,
      .combinebc = 1,
      .clipout = 0,
      .shift_y = 0,
      .rounding_o = 0,
      .saturation_o = 0,
      .round_mode_o = 1,
      .relu_mode_o = 0,
      .outbytes_o = 1,
      .shift_o = 14,
      .scalar = 1,
      .dualinput = 0,
      .operation = ARITH_AFFINE,
      .bcast = ARITH_BCAST_SCALAR,
      .Ax_shift = 0,
      .By_shift = 0,
      .C_shift = 0,
      .fWidth = 16,
      .fHeight = 24,
      .fChannels = 64,
      .batchDepth = 8,
      .clipmin = 0,
      .clipmax = 0,
      .A_scalar = 16384,
      .B_scalar = 32,
      .C_scalar = (short)0,
      .A_vector = {0},
      .B_vector = {0},
      .C_vector = {0},
      .vec_precision = {8, 8, 8},
    };

    /* Unit=ARITH_ACC_V2 */
    LL_Arithacc_Init(1, &Conv2D_26_suboff_42_init6);


    /* Dma inputs units to cycle: */
    /* Unit= 8 [STREAM_ENG_V2 8] */
    /* Emit conf for STREAM_ENG_V2 node=Conv2D_22 input ports=0 range=1[0,98304] */

    static const LL_Streng_TensorInitTypeDef Conv2D_22_dma_init_in_0_6 = {
      .dir = 0,
      .noblk = 0,
      .align_right = 0,
      .nbits_unsigned = 1,
      .addr_base = {(unsigned char *)(0x342e0000UL) /* Equivalent hex address = 0x342e0000UL */}, /* Conv2D_22_zero_off_out_34 */
      .offset_start = 0,
      .offset_limit = 98368,
      .frame_count = 0,
      .fwidth = 32,
      .fheight = 48,
      .batch_depth = 8,
      .batch_offset = 64,
      .frame_offset = 0,
      .line_offset = 0,
      .loop_offset = 8,
      .frame_loop_cnt = 1,
      .frame_tot_cnt = 8,
      .nbits_in = 8,
      .nbits_out = 8,
    };

    /* Unit=STREAM_ENG_V2 */
    LL_Streng_TensorInit(8, &Conv2D_22_dma_init_in_0_6, 1);

    /* Unit= 3 [STREAM_ENG_V2 3] */
    /* Emit conf for STREAM_ENG_V2 node=Conv2D_22 input ports=1 range=8[159824,164432] */

    static const LL_Streng_TensorInitTypeDef Conv2D_22_dma_init_in_1_6 = {
      /* 64x3x3x8(8 bits) */
      .dir = 0,
      .raw = 1,
      .continuous = 1,
      .noblk = 0,
      .align_right = 0,
      .nbits_unsigned = 0,
      .cacheable = 1,
      .cache_allocate = 0,
      .addr_base = {(unsigned char *)(0x70380000UL) /* Equivalent hex address = 0x70380000UL */}, /* Conv2D_22_weights_inflated_118 */
      .offset_start = 159824,
      .offset_end = 164432,
      .offset_limit = 164496,
      .frame_count = 0,
      .fwidth = 0,
      .fheight = 0,
      .batch_depth = 0,
      .batch_offset = 0,
      .frame_offset = 0,
      .line_offset = 0,
      .loop_offset = 0,
      .frame_loop_cnt = 0,
      .frame_tot_cnt = 1,
      .nbits_in = 8,
      .nbits_out = 8,
    };

    /* Unit=STREAM_ENG_V2 */
    LL_Streng_TensorInit(3, &Conv2D_22_dma_init_in_1_6, 1);


    /* Dma input bandwidth from memory pools: */
    /* npuRAM5 -> 98304 */
    /* octoFlash -> 4608 */

    /* Dma output units from cycle: */
    /* Unit= 0 [STREAM_ENG_V2 0] */
    /* Emit conf for STREAM_ENG_V2 node=Conv2D_26_suboff_42 output ports=0 range=1[98304,122880] */

    static const LL_Streng_TensorInitTypeDef Conv2D_26_suboff_42_dma_init_out_0_6 = {
      /* to memory canonical from batch=8 */
      .dir = 1,
      .noblk = 0,
      .align_right = 0,
      .nbits_unsigned = 1,
      .addr_base = {(unsigned char *)(0x342e0000UL) /* Equivalent hex address = 0x342e0000UL */}, /* Conv2D_26_zero_off_out_43 */
      .offset_start = 98304,
      .offset_limit = 122944,
      .frame_count = 0,
      .fwidth = 16,
      .fheight = 24,
      .batch_depth = 8,
      .batch_offset = 64,
      .frame_offset = 8,
      .line_offset = 0,
      .loop_offset = 24576,
      .frame_loop_cnt = 8,
      .frame_tot_cnt = 8,
      .nbits_in = 8,
      .nbits_out = 8,
    };

    /* Unit=STREAM_ENG_V2 */
    LL_Streng_TensorInit(0, &Conv2D_26_suboff_42_dma_init_out_0_6, 1);


    /* Dma output bandwidth to memory pools: */
    /* npuRAM5 <- 24576 */

    static const LL_Switch_InitTypeDef switch_init_in_6[] = {
      { LL_Switch_Init_Dest() = ATONN_DSTPORT(STRSWITCH, 0, CONVACC, 3, 0), LL_Switch_Init_Source(0) = ATONN_SRCPORT(STRSWITCH, 0, STRENG, 8, 0), LL_Switch_Init_Context(0) = 1, LL_Switch_Init_Frames(0) = 0, }, /* Conv2D_22 IN: in unit=CONV_ACC_V2 3 in port=0 out unit=STREAM_ENG_V2 8 out port=0 */
      { LL_Switch_Init_Dest() = ATONN_DSTPORT(STRSWITCH, 0, CONVACC, 3, 1), LL_Switch_Init_Source(0) = ATONN_SRCPORT(STRSWITCH, 0, STRENG, 3, 0), LL_Switch_Init_Context(0) = 1, LL_Switch_Init_Frames(0) = 0, }, /* Conv2D_22 IN: in unit=CONV_ACC_V2 3 in port=1 out unit=STREAM_ENG_V2 3 out port=0 */
      { LL_Switch_Init_Dest() = ATONN_DSTPORT(STRSWITCH, 0, ARITH, 2, 0), LL_Switch_Init_Source(0) = ATONN_SRCPORT(STRSWITCH, 0, CONVACC, 3, 0), LL_Switch_Init_Context(0) = 1, LL_Switch_Init_Frames(0) = 0, }, /* Conv2D_22_mul_scale_36 IN: in unit=ARITH_ACC_V2 2 in port=0 out unit=CONV_ACC_V2 3 out port=0 */
      { LL_Switch_Init_Dest() = ATONN_DSTPORT(STRSWITCH, 0, ARITH, 0, 0), LL_Switch_Init_Source(0) = ATONN_SRCPORT(STRSWITCH, 0, ARITH, 2, 0), LL_Switch_Init_Context(0) = 1, LL_Switch_Init_Frames(0) = 0, }, /* Conv2D_22_off_bias_39 IN: in unit=ARITH_ACC_V2 0 in port=0 out unit=ARITH_ACC_V2 2 out port=0 */
      { LL_Switch_Init_Dest() = ATONN_DSTPORT(STRSWITCH, 0, ACTIV, 1, 0), LL_Switch_Init_Source(0) = ATONN_SRCPORT(STRSWITCH, 0, ARITH, 0, 0), LL_Switch_Init_Context(0) = 1, LL_Switch_Init_Frames(0) = 0, }, /* Relu_25 IN: in unit=ACTIV_ACC_V2 1 in port=0 out unit=ARITH_ACC_V2 0 out port=0 */
      { LL_Switch_Init_Dest() = ATONN_DSTPORT(STRSWITCH, 0, ARITH, 1, 0), LL_Switch_Init_Source(0) = ATONN_SRCPORT(STRSWITCH, 0, ACTIV, 1, 0), LL_Switch_Init_Context(0) = 1, LL_Switch_Init_Frames(0) = 0, }, /* Conv2D_26_suboff_42 IN: in unit=ARITH_ACC_V2 1 in port=0 out unit=ACTIV_ACC_V2 1 out port=0 */
      { LL_Switch_Init_Dest() = ATONN_DSTPORT(STRSWITCH, 0, STRENG, 0, 0), LL_Switch_Init_Source(0) = ATONN_SRCPORT(STRSWITCH, 0, ARITH, 1, 0), LL_Switch_Init_Context(0) = 1, LL_Switch_Init_Frames(0) = 0, }, /* Conv2D_26_suboff_42 OUT: in unit=STREAM_ENG_V2 0 in port=0 out unit=ARITH_ACC_V2 1 out port=0 */
    };


    /* epoch=6 */
    LL_Switch_Init(switch_init_in_6, 7);

    static LL_ATON_EnableUnits_InitTypeDef Enable_epoch_6_all_units[] = {
      { {STRENG, 0} }, /* STREAM_ENG_V2 */
      { {CONVACC, 3} }, /* CONV_ACC_V2 */
      { {ACTIV, 1} }, /* ACTIV_ACC_V2 */
      { {ARITH, 0} }, /* ARITH_ACC_V2 */
      { {ARITH, 1} }, /* ARITH_ACC_V2 */
      { {ARITH, 2} }, /* ARITH_ACC_V2 */
      { {STRENG, 3} }, /* STREAM_ENG_V2 */
      { {STRENG, 8} }, /* STREAM_ENG_V2 */
    };


    LL_ATON_EnableUnits_Init(Enable_epoch_6_all_units, 8);

  }

  ec_trace_wait_epoch_end(0x1);

  {
    static const LL_Switch_DeinitTypeDef switch_deinit_in_6[] = {
      { LL_Switch_Init_Dest() = ATONN_DSTPORT(STRSWITCH, 0, CONVACC, 3, 0), LL_Switch_Init_Source(0) = ATONN_SRCPORT(STRSWITCH, 0, STRENG, 8, 0), LL_Switch_Init_Context(0) = 1, LL_Switch_Init_Frames(0) = 0, }, /* Conv2D_22 IN: in unit=CONV_ACC_V2 3 in port=0 out unit=STREAM_ENG_V2 8 out port=0 */
      { LL_Switch_Init_Dest() = ATONN_DSTPORT(STRSWITCH, 0, CONVACC, 3, 1), LL_Switch_Init_Source(0) = ATONN_SRCPORT(STRSWITCH, 0, STRENG, 3, 0), LL_Switch_Init_Context(0) = 1, LL_Switch_Init_Frames(0) = 0, }, /* Conv2D_22 IN: in unit=CONV_ACC_V2 3 in port=1 out unit=STREAM_ENG_V2 3 out port=0 */
      { LL_Switch_Init_Dest() = ATONN_DSTPORT(STRSWITCH, 0, ARITH, 2, 0), LL_Switch_Init_Source(0) = ATONN_SRCPORT(STRSWITCH, 0, CONVACC, 3, 0), LL_Switch_Init_Context(0) = 1, LL_Switch_Init_Frames(0) = 0, }, /* Conv2D_22_mul_scale_36 IN: in unit=ARITH_ACC_V2 2 in port=0 out unit=CONV_ACC_V2 3 out port=0 */
      { LL_Switch_Init_Dest() = ATONN_DSTPORT(STRSWITCH, 0, ARITH, 0, 0), LL_Switch_Init_Source(0) = ATONN_SRCPORT(STRSWITCH, 0, ARITH, 2, 0), LL_Switch_Init_Context(0) = 1, LL_Switch_Init_Frames(0) = 0, }, /* Conv2D_22_off_bias_39 IN: in unit=ARITH_ACC_V2 0 in port=0 out unit=ARITH_ACC_V2 2 out port=0 */
      { LL_Switch_Init_Dest() = ATONN_DSTPORT(STRSWITCH, 0, ACTIV, 1, 0), LL_Switch_Init_Source(0) = ATONN_SRCPORT(STRSWITCH, 0, ARITH, 0, 0), LL_Switch_Init_Context(0) = 1, LL_Switch_Init_Frames(0) = 0, }, /* Relu_25 IN: in unit=ACTIV_ACC_V2 1 in port=0 out unit=ARITH_ACC_V2 0 out port=0 */
      { LL_Switch_Init_Dest() = ATONN_DSTPORT(STRSWITCH, 0, ARITH, 1, 0), LL_Switch_Init_Source(0) = ATONN_SRCPORT(STRSWITCH, 0, ACTIV, 1, 0), LL_Switch_Init_Context(0) = 1, LL_Switch_Init_Frames(0) = 0, }, /* Conv2D_26_suboff_42 IN: in unit=ARITH_ACC_V2 1 in port=0 out unit=ACTIV_ACC_V2 1 out port=0 */
      { LL_Switch_Init_Dest() = ATONN_DSTPORT(STRSWITCH, 0, STRENG, 0, 0), LL_Switch_Init_Source(0) = ATONN_SRCPORT(STRSWITCH, 0, ARITH, 1, 0), LL_Switch_Init_Context(0) = 1, LL_Switch_Init_Frames(0) = 0, }, /* Conv2D_26_suboff_42 OUT: in unit=STREAM_ENG_V2 0 in port=0 out unit=ARITH_ACC_V2 1 out port=0 */
    };


    /* epoch=6 */
    LL_Switch_Deinit(switch_deinit_in_6, 7);

    static LL_ATON_DisableUnits_InitTypeDef Disable_epoch_6_all_units[] = {
      { {STRENG, 0} }, /* STREAM_ENG_V2 */
      { {CONVACC, 3} }, /* CONV_ACC_V2 */
      { {ACTIV, 1} }, /* ACTIV_ACC_V2 */
      { {ARITH, 0} }, /* ARITH_ACC_V2 */
      { {ARITH, 1} }, /* ARITH_ACC_V2 */
      { {ARITH, 2} }, /* ARITH_ACC_V2 */
      { {STRENG, 3} }, /* STREAM_ENG_V2 */
      { {STRENG, 8} }, /* STREAM_ENG_V2 */
    };


    LL_ATON_DisableUnits_Init(Disable_epoch_6_all_units, 8);

  }
  ec_trace_end_epoch(6);
  ec_trace_start_epoch(7);
  {
    /* Unit= 10 [CONV_ACC_V2 0] */
    /* kind=Conv node=Conv2D_26 */
    static const LL_Convacc_InitTypeDef Conv2D_26_init7 = {
      .simd = 1,
      .fsub = 0,
      .accumulate = 0,
      .rounding_f = 0,
      .saturation_f = 0,
      .round_mode_f = 0,
      .f_unsigned = 1,
      .k_unsigned = 0,
      .deepmode = 1,
      .dss2mode = 0,
      .kseten = 3,
      .zfbias = 0,
      .inbytes_f = 3,
      .shift_f = 0,
      .shift_a = 3,
      .rounding_o = 1,
      .saturation_o = 1,
      .round_mode_o = 1,
      .relu_mode_o = 0,
      .outbytes_o = 2,
      .shift_o = 3,
      .raw_o = 0,
      .fWidth = 16,
      .fHeight = 24,
      .kernelWidth = 1,
      .kernelHeight = 1,
      .nKernels = 16,
      .batchDepth = 64,
      .hstride = 1,
      .vstride = 1,
      .left_padding = 0,
      .right_padding = 0,
      .top_padding = 0,
      .bot_padding = 0,
      .left_crop = 0,
      .right_crop = 15,
      .top_crop = 0,
      .bot_crop = 23,
    };

    /* Unit=CONV_ACC_V2 */
    LL_Convacc_Init(0, &Conv2D_26_init7);


    /* Unit= 21 [ARITH_ACC_V2 3] */
    /* kind=Mul node=Conv2D_26_mul_scale_45 */
    static const LL_Arithacc_InitTypeDef Conv2D_26_mul_scale_45_init7 = {
      .rounding_x = 0,
      .saturation_x = 0,
      .round_mode_x = 0,
      .inbytes_x = 2,
      .outbytes_x = 2,
      .shift_x = 0,
      .rounding_y = 0,
      .saturation_y = 0,
      .round_mode_y = 0,
      .inbytes_y = 2,
      .outbytes_y = 2,
      .combinebc = 0,
      .clipout = 0,
      .shift_y = 0,
      .rounding_o = 1,
      .saturation_o = 1,
      .round_mode_o = 1,
      .relu_mode_o = 0,
      .outbytes_o = 2,
      .shift_o = 12,
      .scalar = 0,
      .dualinput = 0,
      .operation = ARITH_AFFINE,
      .bcast = ARITH_BCAST_CHAN,
      .Ax_shift = 0,
      .By_shift = 0,
      .C_shift = 0,
      .fWidth = 16,
      .fHeight = 24,
      .fChannels = 128,
      .batchDepth = 16,
      .clipmin = 0,
      .clipmax = 0,
      .A_scalar = 1,
      .B_scalar = 0,
      .C_scalar = 0,
      .A_vector = { (unsigned char *)(__blob_Conv2D_26_mul_scale_47) },
      .B_vector = {0},
      .C_vector = {0},
      .vec_precision = {16, 16, 16},
    };

    /* Unit=ARITH_ACC_V2 */
    LL_Arithacc_Init(3, &Conv2D_26_mul_scale_45_init7);


    /* Unit= 18 [ARITH_ACC_V2 0] */
    /* kind=Add node=Conv2D_26_off_bias_48 */
    static const LL_Arithacc_InitTypeDef Conv2D_26_off_bias_48_init7 = {
      .rounding_x = 0,
      .saturation_x = 0,
      .round_mode_x = 0,
      .inbytes_x = 2,
      .outbytes_x = 2,
      .shift_x = 0,
      .rounding_y = 0,
      .saturation_y = 0,
      .round_mode_y = 0,
      .inbytes_y = 2,
      .outbytes_y = 2,
      .combinebc = 1,
      .clipout = 0,
      .shift_y = 0,
      .rounding_o = 1,
      .saturation_o = 1,
      .round_mode_o = 1,
      .relu_mode_o = 0,
      .outbytes_o = 1,
      .shift_o = 20,
      .scalar = 0,
      .dualinput = 0,
      .operation = ARITH_AFFINE,
      .bcast = ARITH_BCAST_CHAN,
      .Ax_shift = 0,
      .By_shift = 0,
      .C_shift = 0,
      .fWidth = 16,
      .fHeight = 24,
      .fChannels = 128,
      .batchDepth = 16,
      .clipmin = 0,
      .clipmax = 0,
      .A_scalar = 20664,
      .B_scalar = 0,
      .C_scalar = (short)0,
      .A_vector = {0},
      .B_vector = {0},
      .C_vector = { (unsigned char *)(__blob_Conv2D_26_off_bias_50) },
      .vec_precision = {16, 16, 32},
    };

    /* Unit=ARITH_ACC_V2 */
    LL_Arithacc_Init(0, &Conv2D_26_off_bias_48_init7);


    /* Unit= 16 [ACTIV_ACC_V2 0] */
    /* kind=Relu node=Relu_29 */
    static const LL_Activacc_InitTypeDef Relu_29_init7 = {
      .rounding_f = 0,
      .saturation_f = 0,
      .round_mode_f = 0,
      .inbytes_f = 1,
      .outbytes_f = 1,
      .rounding_o = 1,
      .saturation_o = 1,
      .round_mode_o = 1,
      .relu_mode_o = 0,
      .outbytes_o = 1,
      .signedop = 1,
      .shift_f = 0,
      .shift_o = 0,
      .parameter = 65408,
      .parameter_2 = 65408,
      .fsub = 0,
      .operation = ACTIV_TRELU,
    };

    /* Unit=ACTIV_ACC_V2 */
    LL_Activacc_Init(0, &Relu_29_init7);


    /* Unit= 19 [ARITH_ACC_V2 1] */
    /* kind=Sub node=Conv2D_31_suboff_51 */
    static const LL_Arithacc_InitTypeDef Conv2D_31_suboff_51_init7 = {
      .rounding_x = 0,
      .saturation_x = 0,
      .round_mode_x = 0,
      .inbytes_x = 1,
      .outbytes_x = 1,
      .shift_x = 0,
      .rounding_y = 0,
      .saturation_y = 0,
      .round_mode_y = 0,
      .inbytes_y = 1,
      .outbytes_y = 1,
      .combinebc = 1,
      .clipout = 0,
      .shift_y = 0,
      .rounding_o = 0,
      .saturation_o = 0,
      .round_mode_o = 1,
      .relu_mode_o = 0,
      .outbytes_o = 1,
      .shift_o = 14,
      .scalar = 1,
      .dualinput = 0,
      .operation = ARITH_AFFINE,
      .bcast = ARITH_BCAST_SCALAR,
      .Ax_shift = 0,
      .By_shift = 0,
      .C_shift = 0,
      .fWidth = 16,
      .fHeight = 24,
      .fChannels = 128,
      .batchDepth = 16,
      .clipmin = 0,
      .clipmax = 0,
      .A_scalar = 16384,
      .B_scalar = 32,
      .C_scalar = (short)0,
      .A_vector = {0},
      .B_vector = {0},
      .C_vector = {0},
      .vec_precision = {8, 8, 8},
    };

    /* Unit=ARITH_ACC_V2 */
    LL_Arithacc_Init(1, &Conv2D_31_suboff_51_init7);


    /* Dma inputs units to cycle: */
    /* Unit= 2 [STREAM_ENG_V2 2] */
    /* Emit conf for STREAM_ENG_V2 node=Conv2D_26 input ports=0 range=1[98304,122880] */

    static const LL_Streng_TensorInitTypeDef Conv2D_26_dma_init_in_0_7 = {
      /* 16x24x64(8 bits) */
      .dir = 0,
      .raw = 1,
      .raw_out = 1,
      .noblk = 0,
      .align_right = 0,
      .nbits_unsigned = 1,
      .addr_base = {(unsigned char *)(0x342e0000UL) /* Equivalent hex address = 0x342e0000UL */}, /* Conv2D_26_zero_off_out_43 */
      .offset_start = 98304,
      .offset_end = 122880,
      .offset_limit = 122944,
      .frame_count = 0,
      .fwidth = 0,
      .fheight = 0,
      .batch_depth = 0,
      .batch_offset = 0,
      .frame_offset = 0,
      .line_offset = 0,
      .loop_offset = 24576,
      .frame_loop_cnt = 8,
      .frame_tot_cnt = 8,
      .nbits_in = 24,
      .nbits_out = 24,
    };

    /* Unit=STREAM_ENG_V2 */
    LL_Streng_TensorInit(2, &Conv2D_26_dma_init_in_0_7, 1);

    /* Unit= 6 [STREAM_ENG_V2 6] */
    /* Emit conf for STREAM_ENG_V2 node=Conv2D_26 input ports=1 range=8[151616,159824] */

    static const LL_Streng_TensorInitTypeDef Conv2D_26_dma_init_in_1_7 = {
      /* 128x1x1x64(8 bits) */
      .dir = 0,
      .raw = 1,
      .continuous = 1,
      .noblk = 0,
      .align_right = 0,
      .nbits_unsigned = 0,
      .cacheable = 1,
      .cache_allocate = 0,
      .addr_base = {(unsigned char *)(0x70380000UL) /* Equivalent hex address = 0x70380000UL */}, /* Conv2D_26_weights */
      .offset_start = 151616,
      .offset_end = 159824,
      .offset_limit = 159888,
      .frame_count = 0,
      .fwidth = 0,
      .fheight = 0,
      .batch_depth = 0,
      .batch_offset = 0,
      .frame_offset = 0,
      .line_offset = 0,
      .loop_offset = 0,
      .frame_loop_cnt = 0,
      .frame_tot_cnt = 1,
      .nbits_in = 24,
      .nbits_out = 24,
    };

    /* Unit=STREAM_ENG_V2 */
    LL_Streng_TensorInit(6, &Conv2D_26_dma_init_in_1_7, 1);


    /* Dma input bandwidth from memory pools: */
    /* npuRAM5 -> 196608 */
    /* octoFlash -> 8192 */

    /* Dma output units from cycle: */
    /* Unit= 8 [STREAM_ENG_V2 8] */
    /* Emit conf for STREAM_ENG_V2 node=Conv2D_31_suboff_51 output ports=0 range=1[0,49152] */

    static const LL_Streng_TensorInitTypeDef Conv2D_31_suboff_51_dma_init_out_0_7 = {
      /* to memory canonical from batch=16 */
      .dir = 1,
      .noblk = 0,
      .align_right = 0,
      .nbits_unsigned = 1,
      .addr_base = {(unsigned char *)(0x342e0000UL) /* Equivalent hex address = 0x342e0000UL */}, /* Conv2D_31_zero_off_out_52 */
      .offset_start = 0,
      .offset_limit = 49216,
      .frame_count = 0,
      .fwidth = 16,
      .fheight = 24,
      .batch_depth = 16,
      .batch_offset = 128,
      .frame_offset = 16,
      .line_offset = 0,
      .loop_offset = 49152,
      .frame_loop_cnt = 8,
      .frame_tot_cnt = 8,
      .nbits_in = 8,
      .nbits_out = 8,
    };

    /* Unit=STREAM_ENG_V2 */
    LL_Streng_TensorInit(8, &Conv2D_31_suboff_51_dma_init_out_0_7, 1);


    /* Dma output bandwidth to memory pools: */
    /* npuRAM5 <- 49152 */

    static const LL_Switch_InitTypeDef switch_init_in_7[] = {
      { LL_Switch_Init_Dest() = ATONN_DSTPORT(STRSWITCH, 0, CONVACC, 0, 0), LL_Switch_Init_Source(0) = ATONN_SRCPORT(STRSWITCH, 0, STRENG, 2, 0), LL_Switch_Init_Context(0) = 1, LL_Switch_Init_Frames(0) = 0, }, /* Conv2D_26 IN: in unit=CONV_ACC_V2 0 in port=0 out unit=STREAM_ENG_V2 2 out port=0 */
      { LL_Switch_Init_Dest() = ATONN_DSTPORT(STRSWITCH, 0, CONVACC, 0, 1), LL_Switch_Init_Source(0) = ATONN_SRCPORT(STRSWITCH, 0, STRENG, 6, 0), LL_Switch_Init_Context(0) = 1, LL_Switch_Init_Frames(0) = 0, }, /* Conv2D_26 IN: in unit=CONV_ACC_V2 0 in port=1 out unit=STREAM_ENG_V2 6 out port=0 */
      { LL_Switch_Init_Dest() = ATONN_DSTPORT(STRSWITCH, 0, ARITH, 3, 0), LL_Switch_Init_Source(0) = ATONN_SRCPORT(STRSWITCH, 0, CONVACC, 0, 0), LL_Switch_Init_Context(0) = 1, LL_Switch_Init_Frames(0) = 0, }, /* Conv2D_26_mul_scale_45 IN: in unit=ARITH_ACC_V2 3 in port=0 out unit=CONV_ACC_V2 0 out port=0 */
      { LL_Switch_Init_Dest() = ATONN_DSTPORT(STRSWITCH, 0, ARITH, 0, 0), LL_Switch_Init_Source(0) = ATONN_SRCPORT(STRSWITCH, 0, ARITH, 3, 0), LL_Switch_Init_Context(0) = 1, LL_Switch_Init_Frames(0) = 0, }, /* Conv2D_26_off_bias_48 IN: in unit=ARITH_ACC_V2 0 in port=0 out unit=ARITH_ACC_V2 3 out port=0 */
